{
  "version": "1.0",
  "truncation": null,
  "padding": null,
  "added_tokens": [
    {
      "id": 0,
      "content": "[UNK]",
      "single_word": false,
      "lstrip": false,
      "rstrip": false,
      "normalized": false,
      "special": true
    },
    {
      "id": 1,
      "content": "[CLS]",
      "single_word": false,
      "lstrip": false,
      "rstrip": false,
      "normalized": false,
      "special": true
    },
    {
      "id": 2,
      "content": "[SEP]",
      "single_word": false,
      "lstrip": false,
      "rstrip": false,
      "normalized": false,
      "special": true
    },
    {
      "id": 3,
      "content": "[PAD]",
      "single_word": false,
      "lstrip": false,
      "rstrip": false,
      "normalized": false,
      "special": true
    },
    {
      "id": 4,
      "content": "[MASK]",
      "single_word": false,
      "lstrip": false,
      "rstrip": false,
      "normalized": false,
      "special": true
    }
  ],
  "normalizer": null,
  "pre_tokenizer": {
    "type": "Whitespace"
  },
  "post_processor": null,
  "decoder": null,
  "model": {
    "type": "BPE",
    "dropout": null,
    "unk_token": null,
    "continuing_subword_prefix": null,
    "end_of_word_suffix": null,
    "fuse_unk": false,
    "byte_fallback": false,
    "ignore_merges": false,
    "vocab": {
      "[UNK]": 0,
      "[CLS]": 1,
      "[SEP]": 2,
      "[PAD]": 3,
      "[MASK]": 4,
      "0": 5,
      "1": 6,
      "2": 7,
      "3": 8,
      "4": 9,
      "5": 10,
      "6": 11,
      "7": 12,
      "8": 13,
      "9": 14,
      "a": 15,
      "b": 16,
      "c": 17,
      "d": 18,
      "e": 19,
      "f": 20,
      "g": 21,
      "h": 22,
      "i": 23,
      "j": 24,
      "k": 25,
      "l": 26,
      "m": 27,
      "n": 28,
      "o": 29,
      "p": 30,
      "q": 31,
      "r": 32,
      "s": 33,
      "t": 34,
      "u": 35,
      "v": 36,
      "w": 37,
      "x": 38,
      "y": 39,
      "z": 40,
      "­": 41,
      "®": 42,
      "°": 43,
      "±": 44,
      "´": 45,
      "µ": 46,
      "º": 47,
      "×": 48,
      "ã": 49,
      "é": 50,
      "í": 51,
      "ö": 52,
      "ü": 53,
      "˃": 54,
      "α": 55,
      "β": 56,
      "γ": 57,
      "κ": 58,
      "λ": 59,
      "μ": 60,
      "–": 61,
      "‘": 62,
      "’": 63,
      "“": 64,
      "”": 65,
      "′": 66,
      "℃": 67,
      "™": 68,
      "−": 69,
      "≤": 70,
      "≥": 71,
      "⩾": 72,
      "in": 73,
      "er": 74,
      "th": 75,
      "on": 76,
      "at": 77,
      "en": 78,
      "al": 79,
      "or": 80,
      "an": 81,
      "ed": 82,
      "re": 83,
      "as": 84,
      "it": 85,
      "ar": 86,
      "is": 87,
      "ion": 88,
      "ent": 89,
      "ic": 90,
      "the": 91,
      "us": 92,
      "of": 93,
      "es": 94,
      "to": 95,
      "and": 96,
      "ro": 97,
      "ia": 98,
      "co": 99,
      "ith": 100,
      "with": 101,
      "ur": 102,
      "ing": 103,
      "le": 104,
      "was": 105,
      "st": 106,
      "un": 107,
      "ol": 108,
      "he": 109,
      "ul": 110,
      "ati": 111,
      "ation": 112,
      "ac": 113,
      "ter": 114,
      "os": 115,
      "de": 116,
      "ve": 117,
      "pati": 118,
      "patient": 119,
      "ly": 120,
      "ear": 121,
      "no": 122,
      "for": 123,
      "lo": 124,
      "ad": 125,
      "year": 126,
      "dia": 127,
      "cl": 128,
      "id": 129,
      "ut": 130,
      "ct": 131,
      "ex": 132,
      "ver": 133,
      "ag": 134,
      "res": 135,
      "ir": 136,
      "com": 137,
      "be": 138,
      "usion": 139,
      "se": 140,
      "rit": 141,
      "ab": 142,
      "il": 143,
      "pl": 144,
      "der": 145,
      "con": 146,
      "min": 147,
      "patients": 148,
      "mon": 149,
      "hy": 150,
      "clusion": 151,
      "sc": 152,
      "crit": 153,
      "eria": 154,
      "ist": 155,
      "criteria": 156,
      "ig": 157,
      "ical": 158,
      "em": 159,
      "tr": 160,
      "ch": 161,
      "per": 162,
      "car": 163,
      "ain": 164,
      "im": 165,
      "ho": 166,
      "age": 167,
      "um": 168,
      "ere": 169,
      "ap": 170,
      "cy": 171,
      "sur": 172,
      "me": 173,
      "cardia": 174,
      "ne": 175,
      "su": 176,
      "hos": 177,
      "years": 178,
      "hosp": 179,
      "ric": 180,
      "fe": 181,
      "ction": 182,
      "med": 183,
      "ated": 184,
      "ess": 185,
      "ive": 186,
      "mo": 187,
      "br": 188,
      "pe": 189,
      "ial": 190,
      "af": 191,
      "pro": 192,
      "ce": 193,
      "old": 194,
      "qu": 195,
      "ital": 196,
      "low": 197,
      "ment": 198,
      "vent": 199,
      "ate": 200,
      "dis": 201,
      "able": 202,
      "after": 203,
      "surg": 204,
      "tes": 205,
      "adm": 206,
      "hospital": 207,
      "cardiac": 208,
      "ous": 209,
      "ll": 210,
      "ted": 211,
      "gl": 212,
      "mal": 213,
      "she": 214,
      "di": 215,
      "under": 216,
      "ast": 217,
      "her": 218,
      "his": 219,
      "ular": 220,
      "ory": 221,
      "than": 222,
      "itor": 223,
      "ant": 224,
      "monitor": 225,
      "inclusion": 226,
      "li": 227,
      "exclusion": 228,
      "we": 229,
      "rest": 230,
      "fol": 231,
      "gn": 232,
      "ity": 233,
      "fic": 234,
      "one": 235,
      "follow": 236,
      "ha": 237,
      "tre": 238,
      "ens": 239,
      "gm": 240,
      "ill": 241,
      "out": 242,
      "ty": 243,
      "ase": 244,
      "arrest": 245,
      "ther": 246,
      "mor": 247,
      "og": 248,
      "18": 249,
      "pre": 250,
      "diabe": 251,
      "igh": 252,
      "pres": 253,
      "ys": 254,
      "ib": 255,
      "cgm": 256,
      "type": 257,
      "were": 258,
      "ery": 259,
      "diabetes": 260,
      "val": 261,
      "rom": 262,
      "ass": 263,
      "ien": 264,
      "not": 265,
      "wh": 266,
      "sy": 267,
      "ations": 268,
      "ke": 269,
      "up": 270,
      "vi": 271,
      "surgery": 272,
      "sion": 273,
      "minal": 274,
      "ph": 275,
      "vid": 276,
      "month": 277,
      "ren": 278,
      "hist": 279,
      "history": 280,
      "plac": 281,
      "end": 282,
      "atos": 283,
      "sa": 284,
      "iat": 285,
      "pon": 286,
      "pr": 287,
      "uco": 288,
      "fer": 289,
      "ma": 290,
      "iz": 291,
      "ior": 292,
      "wn": 293,
      "ins": 294,
      "infe": 295,
      "iatric": 296,
      "ight": 297,
      "urs": 298,
      "ventric": 299,
      "cons": 300,
      "par": 301,
      "sho": 302,
      "gluco": 303,
      "glucose": 304,
      "od": 305,
      "ission": 306,
      "monitoring": 307,
      "infection": 308,
      "ained": 309,
      "ventricular": 310,
      "stat": 311,
      "renal": 312,
      "hours": 313,
      "ficien": 314,
      "ficiency": 315,
      "oun": 316,
      "terminal": 317,
      "admission": 318,
      "da": 319,
      "status": 320,
      "ale": 321,
      "months": 322,
      "pa": 323,
      "present": 324,
      "ater": 325,
      "fi": 326,
      "ca": 327,
      "ich": 328,
      "cont": 329,
      "which": 330,
      "sever": 331,
      "gen": 332,
      "ulin": 333,
      "show": 334,
      "tra": 335,
      "mass": 336,
      "ness": 337,
      "comp": 338,
      "itus": 339,
      "ving": 340,
      "unable": 341,
      "mell": 342,
      "insulin": 343,
      "mellitus": 344,
      "65": 345,
      "had": 346,
      "tered": 347,
      "ure": 348,
      "init": 349,
      "ful": 350,
      "severe": 351,
      "within": 352,
      "has": 353,
      "ser": 354,
      "am": 355,
      "ition": 356,
      "rosc": 357,
      "te": 358,
      "ative": 359,
      "therap": 360,
      "itted": 361,
      "less": 362,
      "ft": 363,
      "fir": 364,
      "ine": 365,
      "therapy": 366,
      "admitted": 367,
      "treat": 368,
      "inter": 369,
      "having": 370,
      "po": 371,
      "their": 372,
      "treatment": 373,
      "ran": 374,
      "atic": 375,
      "qual": 376,
      "showed": 377,
      "nor": 378,
      "path": 379,
      "ute": 380,
      "least": 381,
      "left": 382,
      "liver": 383,
      "older": 384,
      "log": 385,
      "trac": 386,
      "equal": 387,
      "usc": 388,
      "dise": 389,
      "tic": 390,
      "scan": 391,
      "rh": 392,
      "inu": 393,
      "psy": 394,
      "fl": 395,
      "cent": 396,
      "continu": 397,
      "disease": 398,
      "acute": 399,
      "dep": 400,
      "inj": 401,
      "normal": 402,
      "requ": 403,
      "hemor": 404,
      "tained": 405,
      "minut": 406,
      "minutes": 407,
      "sus": 408,
      "brain": 409,
      "medical": 410,
      "hemorrh": 411,
      "ned": 412,
      "bar": 413,
      "veal": 414,
      "reas": 415,
      "compl": 416,
      "fun": 417,
      "hemorrhage": 418,
      "ual": 419,
      "ement": 420,
      "reg": 421,
      "ane": 422,
      "cs": 423,
      "reveal": 424,
      "ved": 425,
      "hemo": 426,
      "istent": 427,
      "ite": 428,
      "uro": 429,
      "male": 430,
      "ance": 431,
      "by": 432,
      "comm": 433,
      "fem": 434,
      "comatos": 435,
      "comatose": 436,
      "ret": 437,
      "suf": 438,
      "et": 439,
      "ug": 440,
      "prior": 441,
      "depend": 442,
      "ible": 443,
      "pos": 444,
      "ore": 445,
      "amin": 446,
      "gent": 447,
      "revealed": 448,
      "19": 449,
      "gcs": 450,
      "fully": 451,
      "ox": 452,
      "injur": 453,
      "traum": 454,
      "hem": 455,
      "bal": 456,
      "ary": 457,
      "ized": 458,
      "consent": 459,
      "intrac": 460,
      "ysis": 461,
      "part": 462,
      "injury": 463,
      "respon": 464,
      "from": 465,
      "ten": 466,
      "itation": 467,
      "oral": 468,
      "lim": 469,
      "right": 470,
      "ands": 471,
      "ranial": 472,
      "tac": 473,
      "event": 474,
      "oc": 475,
      "rhy": 476,
      "thm": 477,
      "plan": 478,
      "ound": 479,
      "ced": 480,
      "score": 481,
      "massive": 482,
      "function": 483,
      "pregn": 484,
      "requir": 485,
      "kin": 486,
      "ancy": 487,
      "stro": 488,
      "resusc": 489,
      "rhythm": 490,
      "20": 491,
      "cul": 492,
      "intracranial": 493,
      "est": 494,
      "sustained": 495,
      "stroke": 496,
      "10": 497,
      "ility": 498,
      "sive": 499,
      "illness": 500,
      "dro": 501,
      "vic": 502,
      "traumatic": 503,
      "60": 504,
      "ud": 505,
      "mg": 506,
      "medic": 507,
      "commands": 508,
      "24": 509,
      "female": 510,
      "order": 511,
      "first": 512,
      "skin": 513,
      "continuous": 514,
      "fig": 515,
      "very": 516,
      "surgical": 517,
      "pregnancy": 518,
      "blo": 519,
      "sens": 520,
      "urgent": 521,
      "fusion": 522,
      "man": 523,
      "placed": 524,
      "resuscitation": 525,
      "act": 526,
      "examin": 527,
      "deficiency": 528,
      "remo": 529,
      "tom": 530,
      "psych": 531,
      "verbal": 532,
      "bid": 533,
      "tachy": 534,
      "io": 535,
      "pathy": 536,
      "planned": 537,
      "covid": 538,
      "logist": 539,
      "rap": 540,
      "psychiatric": 541,
      "go": 542,
      "have": 543,
      "ies": 544,
      "fibr": 545,
      "limit": 546,
      "treated": 547,
      "initi": 548,
      "fibrill": 549,
      "there": 550,
      "placement": 551,
      "retur": 552,
      "that": 553,
      "disorder": 554,
      "morbid": 555,
      "tachycardia": 556,
      "logistical": 557,
      "aneous": 558,
      "cir": 559,
      "ot": 560,
      "ign": 561,
      "mak": 562,
      "bariatric": 563,
      "this": 564,
      "ially": 565,
      "fibrillation": 566,
      "own": 567,
      "asis": 568,
      "sah": 569,
      "mental": 570,
      "kno": 571,
      "oxal": 572,
      "sensor": 573,
      "examination": 574,
      "oxalate": 575,
      "olog": 576,
      "center": 577,
      "every": 578,
      "site": 579,
      "ability": 580,
      "compens": 581,
      "responsive": 582,
      "known": 583,
      "ip": 584,
      "decompens": 585,
      "feas": 586,
      "blood": 587,
      "replacement": 588,
      "disorders": 589,
      "cem": 590,
      "chrom": 591,
      "feasible": 592,
      "unresponsive": 593,
      "requiring": 594,
      "bral": 595,
      "survi": 596,
      "like": 597,
      "taneous": 598,
      "survival": 599,
      "spon": 600,
      "ugh": 601,
      "decompensated": 602,
      "atosis": 603,
      "fo": 604,
      "writ": 605,
      "arg": 606,
      "medications": 607,
      "spontaneous": 608,
      "written": 609,
      "ons": 610,
      "dex": 611,
      "formed": 612,
      "neph": 613,
      "ump": 614,
      "diet": 615,
      "gnos": 616,
      "compli": 617,
      "hemochrom": 618,
      "hemochromatosis": 619,
      "do": 620,
      "ash": 621,
      "du": 622,
      "mm": 623,
      "insuf": 624,
      "gre": 625,
      "servic": 626,
      "removal": 627,
      "return": 628,
      "circul": 629,
      "cere": 630,
      "hydro": 631,
      "vide": 632,
      "iasis": 633,
      "circulation": 634,
      "ort": 635,
      "nephro": 636,
      "insufficiency": 637,
      "lith": 638,
      "cogn": 639,
      "provide": 640,
      "lycem": 641,
      "likely": 642,
      "initiation": 643,
      "nephropathy": 644,
      "ob": 645,
      "all": 646,
      "functional": 647,
      "limitations": 648,
      "compliance": 649,
      "phosp": 650,
      "pump": 651,
      "index": 652,
      "urolith": 653,
      "urolithiasis": 654,
      "pog": 655,
      "ris": 656,
      "istered": 657,
      "test": 658,
      "hospitalized": 659,
      "str": 660,
      "unlikely": 661,
      "hypog": 662,
      "ger": 663,
      "cerebral": 664,
      "hypoglycem": 665,
      "altered": 666,
      "cted": 667,
      "cer": 668,
      "coma": 669,
      "wo": 670,
      "same": 671,
      "days": 672,
      "partially": 673,
      "makes": 674,
      "hypoglycemic": 675,
      "pain": 676,
      "diagnos": 677,
      "flash": 678,
      "existent": 679,
      "perfusion": 680,
      "greater": 681,
      "phosph": 682,
      "ach": 683,
      "alone": 684,
      "performed": 685,
      "reasons": 686,
      "risk": 687,
      "inability": 688,
      "divid": 689,
      "fering": 690,
      "services": 691,
      "cm": 692,
      "dehydro": 693,
      "genase": 694,
      "interfering": 695,
      "dehydrogenase": 696,
      "bo": 697,
      "individ": 698,
      "rem": 699,
      "morbidity": 700,
      "individual": 701,
      "dependant": 702,
      "cognition": 703,
      "ult": 704,
      "mp": 705,
      "ence": 706,
      "olysis": 707,
      "phosphate": 708,
      "individuals": 709,
      "but": 710,
      "sq": 711,
      "sign": 712,
      "cgms": 713,
      "so": 714,
      "ang": 715,
      "cor": 716,
      "red": 717,
      "youn": 718,
      "scale": 719,
      "ep": 720,
      "day": 721,
      "issu": 722,
      "hemolysis": 723,
      "cur": 724,
      "registered": 725,
      "younger": 726,
      "rad": 727,
      "ay": 728,
      "neg": 729,
      "ey": 730,
      "atory": 731,
      "cond": 732,
      "any": 733,
      "asgo": 734,
      "tran": 735,
      "glasgo": 736,
      "glasgow": 737,
      "ily": 738,
      "ek": 739,
      "ind": 740,
      "iv": 741,
      "fore": 742,
      "negative": 743,
      "dl": 744,
      "ri": 745,
      "post": 746,
      "over": 747,
      "vel": 748,
      "clin": 749,
      "vis": 750,
      "int": 751,
      "ide": 752,
      "cal": 753,
      "clud": 754,
      "week": 755,
      "op": 756,
      "inal": 757,
      "15": 758,
      "abdo": 759,
      "ific": 760,
      "perative": 761,
      "cell": 762,
      "presented": 763,
      "level": 764,
      "foot": 765,
      "raphy": 766,
      "sub": 767,
      "ateral": 768,
      "use": 769,
      "well": 770,
      "dur": 771,
      "trans": 772,
      "ck": 773,
      "ron": 774,
      "itive": 775,
      "inc": 776,
      "les": 777,
      "tum": 778,
      "dr": 779,
      "other": 780,
      "ak": 781,
      "been": 782,
      "col": 783,
      "50": 784,
      "cop": 785,
      "eye": 786,
      "ped": 787,
      "ile": 788,
      "sp": 789,
      "bil": 790,
      "without": 791,
      "unt": 792,
      "are": 793,
      "dist": 794,
      "ities": 795,
      "ble": 796,
      "care": 797,
      "tumor": 798,
      "cle": 799,
      "initial": 800,
      "gr": 801,
      "sh": 802,
      "lesion": 803,
      "ie": 804,
      "ures": 805,
      "before": 806,
      "can": 807,
      "includ": 808,
      "rough": 809,
      "chest": 810,
      "dependent": 811,
      "pir": 812,
      "ext": 813,
      "cr": 814,
      "kid": 815,
      "mptom": 816,
      "kidne": 817,
      "bio": 818,
      "tim": 819,
      "iog": 820,
      "exper": 821,
      "ele": 822,
      "12": 823,
      "kidney": 824,
      "phy": 825,
      "heal": 826,
      "positive": 827,
      "ium": 828,
      "met": 829,
      "comple": 830,
      "due": 831,
      "condition": 832,
      "experien": 833,
      "des": 834,
      "om": 835,
      "port": 836,
      "our": 837,
      "two": 838,
      "ark": 839,
      "hyper": 840,
      "ization": 841,
      "40": 842,
      "tal": 843,
      "velo": 844,
      "chron": 845,
      "issues": 846,
      "imag": 847,
      "impro": 848,
      "diagnosis": 849,
      "did": 850,
      "vas": 851,
      "rel": 852,
      "dif": 853,
      "during": 854,
      "cess": 855,
      "both": 856,
      "curr": 857,
      "art": 858,
      "confir": 859,
      "ub": 860,
      "wor": 861,
      "ree": 862,
      "itis": 863,
      "tomy": 864,
      "chronic": 865,
      "intra": 866,
      "also": 867,
      "symptom": 868,
      "clinical": 869,
      "high": 870,
      "arter": 871,
      "mgdl": 872,
      "found": 873,
      "ulcer": 874,
      "neuro": 875,
      "fied": 876,
      "sis": 877,
      "develo": 878,
      "sug": 879,
      "fered": 880,
      "find": 881,
      "tion": 882,
      "experienced": 883,
      "14": 884,
      "30": 885,
      "ven": 886,
      "followed": 887,
      "ody": 888,
      "ail": 889,
      "dec": 890,
      "howe": 891,
      "patholog": 892,
      "finding": 893,
      "however": 894,
      "por": 895,
      "ently": 896,
      "using": 897,
      "ong": 898,
      "abdominal": 899,
      "vol": 900,
      "ating": 901,
      "enti": 902,
      "pers": 903,
      "remained": 904,
      "25": 905,
      "mic": 906,
      "pd": 907,
      "atin": 908,
      "suffered": 909,
      "imaging": 910,
      "cin": 911,
      "oph": 912,
      "thy": 913,
      "uld": 914,
      "charg": 915,
      "app": 916,
      "discharg": 917,
      "reased": 918,
      "fam": 919,
      "sequ": 920,
      "fect": 921,
      "antib": 922,
      "vious": 923,
      "weeks": 924,
      "spe": 925,
      "levels": 926,
      "70": 927,
      "fr": 928,
      "ner": 929,
      "then": 930,
      "valu": 931,
      "phys": 932,
      "bac": 933,
      "dial": 934,
      "form": 935,
      "lower": 936,
      "cells": 937,
      "bilateral": 938,
      "biopsy": 939,
      "larg": 940,
      "non": 941,
      "time": 942,
      "developed": 943,
      "pul": 944,
      "oscop": 945,
      "signific": 946,
      "clear": 947,
      "13": 948,
      "cular": 949,
      "ace": 950,
      "osis": 951,
      "ild": 952,
      "need": 953,
      "findings": 954,
      "ec": 955,
      "el": 956,
      "independent": 957,
      "medi": 958,
      "stru": 959,
      "cord": 960,
      "symptoms": 961,
      "significant": 962,
      "diagnosed": 963,
      "family": 964,
      "evid": 965,
      "tem": 966,
      "xim": 967,
      "ening": 968,
      "ose": 969,
      "prote": 970,
      "lab": 971,
      "oid": 972,
      "operative": 973,
      "beca": 974,
      "complete": 975,
      "az": 976,
      "later": 977,
      "ms": 978,
      "pat": 979,
      "arted": 980,
      "mri": 981,
      "wound": 982,
      "ung": 983,
      "weight": 984,
      "serum": 985,
      "signs": 986,
      "ported": 987,
      "rece": 988,
      "refer": 989,
      "ension": 990,
      "obser": 991,
      "ber": 992,
      "lung": 993,
      "oma": 994,
      "sin": 995,
      "ard": 996,
      "ctive": 997,
      "histo": 998,
      "manag": 999,
      "6pd": 1000,
      "ge": 1001,
      "g6pd": 1002,
      "reported": 1003,
      "stud": 1004,
      "terior": 1005,
      "vement": 1006,
      "cyst": 1007,
      "previous": 1008,
      "flu": 1009,
      "figure": 1010,
      "16": 1011,
      "gro": 1012,
      "started": 1013,
      "head": 1014,
      "plas": 1015,
      "consistent": 1016,
      "vir": 1017,
      "could": 1018,
      "result": 1019,
      "woman": 1020,
      "00": 1021,
      "ade": 1022,
      "brough": 1023,
      "los": 1024,
      "count": 1025,
      "emer": 1026,
      "brought": 1027,
      "fur": 1028,
      "went": 1029,
      "stay": 1030,
      "add": 1031,
      "appro": 1032,
      "mog": 1033,
      "ately": 1034,
      "following": 1035,
      "posto": 1036,
      "vascular": 1037,
      "study": 1038,
      "cre": 1039,
      "pt": 1040,
      "rate": 1041,
      "vention": 1042,
      "anti": 1043,
      "postoperative": 1044,
      "ious": 1045,
      "oper": 1046,
      "oratory": 1047,
      "ided": 1048,
      "logical": 1049,
      "appear": 1050,
      "anal": 1051,
      "used": 1052,
      "illnesses": 1053,
      "confirmed": 1054,
      "gres": 1055,
      "nal": 1056,
      "total": 1057,
      "tomog": 1058,
      "set": 1059,
      "proced": 1060,
      "including": 1061,
      "ax": 1062,
      "cardi": 1063,
      "physical": 1064,
      "laboratory": 1065,
      "loss": 1066,
      "75": 1067,
      "ection": 1068,
      "underwent": 1069,
      "daily": 1070,
      "active": 1071,
      "discharged": 1072,
      "tomography": 1073,
      "35": 1074,
      "45": 1075,
      "musc": 1076,
      "sed": 1077,
      "three": 1078,
      "ise": 1079,
      "local": 1080,
      "identi": 1081,
      "upper": 1082,
      "protein": 1083,
      "abnormal": 1084,
      "chang": 1085,
      "gener": 1086,
      "tests": 1087,
      "issue": 1088,
      "further": 1089,
      "den": 1090,
      "mph": 1091,
      "inf": 1092,
      "lymph": 1093,
      "hypo": 1094,
      "tric": 1095,
      "prim": 1096,
      "raph": 1097,
      "dialysis": 1098,
      "emergen": 1099,
      "evalu": 1100,
      "my": 1101,
      "men": 1102,
      "stem": 1103,
      "contr": 1104,
      "pected": 1105,
      "improved": 1106,
      "recei": 1107,
      "emergency": 1108,
      "fail": 1109,
      "ral": 1110,
      "ves": 1111,
      "anterior": 1112,
      "its": 1113,
      "ieved": 1114,
      "artery": 1115,
      "micro": 1116,
      "demon": 1117,
      "second": 1118,
      "iven": 1119,
      "spec": 1120,
      "evidence": 1121,
      "demonstr": 1122,
      "17": 1123,
      "bl": 1124,
      "cyto": 1125,
      "oci": 1126,
      "ick": 1127,
      "ural": 1128,
      "intervention": 1129,
      "ml": 1130,
      "who": 1131,
      "und": 1132,
      "noted": 1133,
      "uted": 1134,
      "progres": 1135,
      "continued": 1136,
      "identified": 1137,
      "thor": 1138,
      "ster": 1139,
      "heart": 1140,
      "meas": 1141,
      "system": 1142,
      "required": 1143,
      "because": 1144,
      "av": 1145,
      "ef": 1146,
      "gas": 1147,
      "given": 1148,
      "into": 1149,
      "ented": 1150,
      "full": 1151,
      "angiog": 1152,
      "radiog": 1153,
      "poster": 1154,
      "dys": 1155,
      "ii": 1156,
      "ning": 1157,
      "diabetic": 1158,
      "bin": 1159,
      "gest": 1160,
      "tak": 1161,
      "imm": 1162,
      "subsequ": 1163,
      "piratory": 1164,
      "muscle": 1165,
      "ath": 1166,
      "body": 1167,
      "mult": 1168,
      "pne": 1169,
      "tissue": 1170,
      "fever": 1171,
      "pair": 1172,
      "complic": 1173,
      "achieved": 1174,
      "remark": 1175,
      "current": 1176,
      "addition": 1177,
      "remarkable": 1178,
      "light": 1179,
      "tho": 1180,
      "eno": 1181,
      "ism": 1182,
      "ulation": 1183,
      "ultr": 1184,
      "new": 1185,
      "hospitalization": 1186,
      "abdomen": 1187,
      "increased": 1188,
      "distal": 1189,
      "nerve": 1190,
      "ultras": 1191,
      "bone": 1192,
      "hg": 1193,
      "ix": 1194,
      "ied": 1195,
      "na": 1196,
      "past": 1197,
      "cles": 1198,
      "immedi": 1199,
      "suc": 1200,
      "sure": 1201,
      "contro": 1202,
      "contrast": 1203,
      "received": 1204,
      "posterior": 1205,
      "line": 1206,
      "side": 1207,
      "cav": 1208,
      "morbidities": 1209,
      "elect": 1210,
      "general": 1211,
      "failure": 1212,
      "done": 1213,
      "gu": 1214,
      "mit": 1215,
      "ple": 1216,
      "appl": 1217,
      "sugar": 1218,
      "last": 1219,
      "mild": 1220,
      "sar": 1221,
      "infl": 1222,
      "these": 1223,
      "ste": 1224,
      "subar": 1225,
      "pressure": 1226,
      "associ": 1227,
      "partment": 1228,
      "grade": 1229,
      "metast": 1230,
      "work": 1231,
      "success": 1232,
      "unremarkable": 1233,
      "noid": 1234,
      "ution": 1235,
      "achnoid": 1236,
      "redu": 1237,
      "short": 1238,
      "conditions": 1239,
      "persistent": 1240,
      "evaluation": 1241,
      "immun": 1242,
      "subarachnoid": 1243,
      "cis": 1244,
      "cro": 1245,
      "chemo": 1246,
      "ected": 1247,
      "han": 1248,
      "only": 1249,
      "onch": 1250,
      "aining": 1251,
      "neck": 1252,
      "astro": 1253,
      "hemat": 1254,
      "100": 1255,
      "transfer": 1256,
      "venous": 1257,
      "large": 1258,
      "results": 1259,
      "procedure": 1260,
      "au": 1261,
      "eding": 1262,
      "department": 1263,
      "admin": 1264,
      "respiratory": 1265,
      "section": 1266,
      "sup": 1267,
      "more": 1268,
      "clinic": 1269,
      "demonstrated": 1270,
      "radiograph": 1271,
      "chemotherapy": 1272,
      "bre": 1273,
      "mar": 1274,
      "ture": 1275,
      "ers": 1276,
      "thro": 1277,
      "extre": 1278,
      "bronch": 1279,
      "mall": 1280,
      "aneur": 1281,
      "back": 1282,
      "oscopy": 1283,
      "primary": 1284,
      "glo": 1285,
      "small": 1286,
      "throm": 1287,
      "through": 1288,
      "oll": 1289,
      "expected": 1290,
      "amm": 1291,
      "indic": 1292,
      "calc": 1293,
      "colon": 1294,
      "neurological": 1295,
      "inflamm": 1296,
      "associated": 1297,
      "dm": 1298,
      "ew": 1299,
      "here": 1300,
      "mid": 1301,
      "ta": 1302,
      "iron": 1303,
      "carcin": 1304,
      "antic": 1305,
      "ensive": 1306,
      "obtained": 1307,
      "drug": 1308,
      "observed": 1309,
      "aneurys": 1310,
      "58": 1311,
      "dose": 1312,
      "mark": 1313,
      "ole": 1314,
      "sto": 1315,
      "vical": 1316,
      "wall": 1317,
      "alp": 1318,
      "record": 1319,
      "ice": 1320,
      "oly": 1321,
      "deep": 1322,
      "plate": 1323,
      "welling": 1324,
      "fract": 1325,
      "bas": 1326,
      "fle": 1327,
      "ps": 1328,
      "van": 1329,
      "dete": 1330,
      "defect": 1331,
      "sel": 1332,
      "gml": 1333,
      "pred": 1334,
      "regular": 1335,
      "response": 1336,
      "elev": 1337,
      "hypert": 1338,
      "thyro": 1339,
      "since": 1340,
      "measur": 1341,
      "extrem": 1342,
      "28": 1343,
      "air": 1344,
      "chem": 1345,
      "gastro": 1346,
      "swelling": 1347,
      "invol": 1348,
      "ature": 1349,
      "umented": 1350,
      "computed": 1351,
      "ological": 1352,
      "four": 1353,
      "epis": 1354,
      "eyes": 1355,
      "referred": 1356,
      "gastric": 1357,
      "72": 1358,
      "bc": 1359,
      "long": 1360,
      "ones": 1361,
      "aspir": 1362,
      "ents": 1363,
      "ago": 1364,
      "cycles": 1365,
      "super": 1366,
      "when": 1367,
      "syn": 1368,
      "made": 1369,
      "gene": 1370,
      "poss": 1371,
      "visual": 1372,
      "48": 1373,
      "cd": 1374,
      "doc": 1375,
      "if": 1376,
      "ts": 1377,
      "ting": 1378,
      "onal": 1379,
      "enhan": 1380,
      "edem": 1381,
      "ish": 1382,
      "adeno": 1383,
      "monary": 1384,
      "perip": 1385,
      "ibed": 1386,
      "upon": 1387,
      "ology": 1388,
      "wors": 1389,
      "pathological": 1390,
      "atinine": 1391,
      "electro": 1392,
      "applic": 1393,
      "ian": 1394,
      "mes": 1395,
      "theter": 1396,
      "ested": 1397,
      "loc": 1398,
      "catheter": 1399,
      "region": 1400,
      "fluid": 1401,
      "creatinine": 1402,
      "documented": 1403,
      "fib": 1404,
      "jo": 1405,
      "ome": 1406,
      "tent": 1407,
      "infer": 1408,
      "ened": 1409,
      "hepat": 1410,
      "ider": 1411,
      "seen": 1412,
      "provid": 1413,
      "mgday": 1414,
      "good": 1415,
      "iple": 1416,
      "radi": 1417,
      "cribed": 1418,
      "peripher": 1419,
      "11": 1420,
      "55": 1421,
      "ech": 1422,
      "fac": 1423,
      "pic": 1424,
      "stand": 1425,
      "stable": 1426,
      "iltr": 1427,
      "cyte": 1428,
      "mother": 1429,
      "ually": 1430,
      "logistically": 1431,
      "health": 1432,
      "management": 1433,
      "edema": 1434,
      "applicable": 1435,
      "kne": 1436,
      "sol": 1437,
      "ically": 1438,
      "peri": 1439,
      "view": 1440,
      "fix": 1441,
      "point": 1442,
      "currently": 1443,
      "multiple": 1444,
      "though": 1445,
      "ultrasound": 1446,
      "thyroid": 1447,
      "cap": 1448,
      "gan": 1449,
      "lateral": 1450,
      "rect": 1451,
      "enter": 1452,
      "too": 1453,
      "acid": 1454,
      "imp": 1455,
      "dies": 1456,
      "pression": 1457,
      "ize": 1458,
      "related": 1459,
      "complications": 1460,
      "inflammatory": 1461,
      "flex": 1462,
      "bu": 1463,
      "gdl": 1464,
      "ram": 1465,
      "sat": 1466,
      "thick": 1467,
      "ases": 1468,
      "lead": 1469,
      "about": 1470,
      "imen": 1471,
      "pel": 1472,
      "while": 1473,
      "ended": 1474,
      "ending": 1475,
      "vice": 1476,
      "initiated": 1477,
      "included": 1478,
      "diffic": 1479,
      "angiography": 1480,
      "immediate": 1481,
      "free": 1482,
      "mag": 1483,
      "next": 1484,
      "pass": 1485,
      "ert": 1486,
      "ision": 1487,
      "again": 1488,
      "istr": 1489,
      "meter": 1490,
      "disc": 1491,
      "fund": 1492,
      "200": 1493,
      "cervical": 1494,
      "vision": 1495,
      "infiltr": 1496,
      "aneurysm": 1497,
      "provided": 1498,
      "peripheral": 1499,
      "68": 1500,
      "cut": 1501,
      "case": 1502,
      "pan": 1503,
      "poly": 1504,
      "ray": 1505,
      "six": 1506,
      "esthe": 1507,
      "row": 1508,
      "unit": 1509,
      "device": 1510,
      "lying": 1511,
      "lymp": 1512,
      "lobe": 1513,
      "plast": 1514,
      "scre": 1515,
      "consider": 1516,
      "removed": 1517,
      "mmhg": 1518,
      "progressive": 1519,
      "carcinoma": 1520,
      "elevated": 1521,
      "knee": 1522,
      "lympho": 1523,
      "23": 1524,
      "ctomy": 1525,
      "dil": 1526,
      "grad": 1527,
      "pite": 1528,
      "ward": 1529,
      "cour": 1530,
      "stage": 1531,
      "abol": 1532,
      "tech": 1533,
      "range": 1534,
      "central": 1535,
      "position": 1536,
      "making": 1537,
      "canal": 1538,
      "healthy": 1539,
      "metabol": 1540,
      "despite": 1541,
      "decreased": 1542,
      "pulmonary": 1543,
      "struction": 1544,
      "approxim": 1545,
      "platele": 1546,
      "hypertension": 1547,
      "kg": 1548,
      "nis": 1549,
      "eng": 1550,
      "along": 1551,
      "iting": 1552,
      "arm": 1553,
      "stones": 1554,
      "acic": 1555,
      "minim": 1556,
      "impair": 1557,
      "necro": 1558,
      "proble": 1559,
      "malign": 1560,
      "oxy": 1561,
      "tender": 1562,
      "curren": 1563,
      "area": 1564,
      "bleeding": 1565,
      "differ": 1566,
      "pathology": 1567,
      "antibody": 1568,
      "managed": 1569,
      "analysis": 1570,
      "thoracic": 1571,
      "detected": 1572,
      "course": 1573,
      "approximately": 1574,
      "36": 1575,
      "clo": 1576,
      "eos": 1577,
      "jun": 1578,
      "sing": 1579,
      "var": 1580,
      "vation": 1581,
      "wise": 1582,
      "repe": 1583,
      "recurrent": 1584,
      "roph": 1585,
      "urine": 1586,
      "consc": 1587,
      "que": 1588,
      "ensity": 1589,
      "block": 1590,
      "therefore": 1591,
      "otherwise": 1592,
      "completely": 1593,
      "support": 1594,
      "joint": 1595,
      "inferior": 1596,
      "conscious": 1597,
      "bul": 1598,
      "final": 1599,
      "fuse": 1600,
      "him": 1601,
      "main": 1602,
      "scop": 1603,
      "vit": 1604,
      "zy": 1605,
      "ator": 1606,
      "isted": 1607,
      "chol": 1608,
      "few": 1609,
      "wel": 1610,
      "weak": 1611,
      "illary": 1612,
      "phal": 1613,
      "inser": 1614,
      "para": 1615,
      "complain": 1616,
      "109": 1617,
      "action": 1618,
      "ried": 1619,
      "improvement": 1620,
      "virus": 1621,
      "prednis": 1622,
      "80": 1623,
      "num": 1624,
      "intest": 1625,
      "still": 1626,
      "respe": 1627,
      "prost": 1628,
      "ography": 1629,
      "white": 1630,
      "injection": 1631,
      "ipated": 1632,
      "drain": 1633,
      "diffuse": 1634,
      "operation": 1635,
      "magne": 1636,
      "fundus": 1637,
      "eosin": 1638,
      "fin": 1639,
      "king": 1640,
      "lig": 1641,
      "pur": 1642,
      "uter": 1643,
      "onance": 1644,
      "alert": 1645,
      "recent": 1646,
      "recurren": 1647,
      "leg": 1648,
      "tern": 1649,
      "adj": 1650,
      "resonance": 1651,
      "emia": 1652,
      "lled": 1653,
      "haem": 1654,
      "place": 1655,
      "iotic": 1656,
      "antibiotic": 1657,
      "grow": 1658,
      "cavity": 1659,
      "immuno": 1660,
      "magnetic": 1661,
      "mem": 1662,
      "night": 1663,
      "sig": 1664,
      "slight": 1665,
      "reco": 1666,
      "reactive": 1667,
      "hep": 1668,
      "advan": 1669,
      "resection": 1670,
      "ume": 1671,
      "scanning": 1672,
      "returned": 1673,
      "otid": 1674,
      "suggest": 1675,
      "oscopic": 1676,
      "ctively": 1677,
      "vessel": 1678,
      "thromb": 1679,
      "anticipated": 1680,
      "based": 1681,
      "respectively": 1682,
      "69": 1683,
      "jected": 1684,
      "sal": 1685,
      "sia": 1686,
      "va": 1687,
      "enlarg": 1688,
      "tox": 1689,
      "fort": 1690,
      "absc": 1691,
      "ils": 1692,
      "child": 1693,
      "mmoll": 1694,
      "testing": 1695,
      "bowel": 1696,
      "coron": 1697,
      "visit": 1698,
      "color": 1699,
      "lesions": 1700,
      "intravenous": 1701,
      "needle": 1702,
      "steroid": 1703,
      "possible": 1704,
      "techn": 1705,
      "recurrence": 1706,
      "hepatic": 1707,
      "advanced": 1708,
      "abscess": 1709,
      "face": 1710,
      "ga": 1711,
      "pped": 1712,
      "rhe": 1713,
      "tor": 1714,
      "uc": 1715,
      "way": 1716,
      "ina": 1717,
      "enic": 1718,
      "organ": 1719,
      "read": 1720,
      "oft": 1721,
      "cough": 1722,
      "ache": 1723,
      "resol": 1724,
      "abil": 1725,
      "partic": 1726,
      "showing": 1727,
      "occ": 1728,
      "acting": 1729,
      "volume": 1730,
      "viral": 1731,
      "changed": 1732,
      "subsequent": 1733,
      "additional": 1734,
      "controlled": 1735,
      "workup": 1736,
      "breath": 1737,
      "esthesia": 1738,
      "platelet": 1739,
      "weakness": 1740,
      "eosinoph": 1741,
      "05": 1742,
      "21": 1743,
      "cort": 1744,
      "ngml": 1745,
      "sound": 1746,
      "size": 1747,
      "albu": 1748,
      "around": 1749,
      "esoph": 1750,
      "root": 1751,
      "stit": 1752,
      "home": 1753,
      "internal": 1754,
      "shap": 1755,
      "decided": 1756,
      "observation": 1757,
      "cystic": 1758,
      "taken": 1759,
      "subsequently": 1760,
      "globin": 1761,
      "deeply": 1762,
      "period": 1763,
      "consciousness": 1764,
      "66": 1765,
      "90": 1766,
      "dy": 1767,
      "lin": 1768,
      "mat": 1769,
      "ra": 1770,
      "inv": 1771,
      "thus": 1772,
      "ats": 1773,
      "tol": 1774,
      "rout": 1775,
      "round": 1776,
      "coll": 1777,
      "ula": 1778,
      "del": 1779,
      "vein": 1780,
      "exclud": 1781,
      "apar": 1782,
      "aft": 1783,
      "affect": 1784,
      "gland": 1785,
      "presence": 1786,
      "assess": 1787,
      "fiel": 1788,
      "limb": 1789,
      "figures": 1790,
      "curred": 1791,
      "ximal": 1792,
      "appeared": 1793,
      "setup": 1794,
      "denied": 1795,
      "successful": 1796,
      "calcium": 1797,
      "measuring": 1798,
      "tooth": 1799,
      "routine": 1800,
      "field": 1801,
      "38": 1802,
      "lum": 1803,
      "palp": 1804,
      "soft": 1805,
      "onset": 1806,
      "arri": 1807,
      "esis": 1808,
      "stent": 1809,
      "load": 1810,
      "diameter": 1811,
      "verse": 1812,
      "ilar": 1813,
      "sch": 1814,
      "perit": 1815,
      "cytes": 1816,
      "moder": 1817,
      "drome": 1818,
      "optic": 1819,
      "headache": 1820,
      "plasma": 1821,
      "postoperatively": 1822,
      "taking": 1823,
      "transferred": 1824,
      "administered": 1825,
      "extremity": 1826,
      "syndrome": 1827,
      "impacting": 1828,
      "considered": 1829,
      "109l": 1830,
      "intestinal": 1831,
      "37": 1832,
      "62": 1833,
      "bp": 1834,
      "gal": 1835,
      "iul": 1836,
      "mac": 1837,
      "nu": 1838,
      "rup": 1839,
      "sit": 1840,
      "tub": 1841,
      "ene": 1842,
      "ank": 1843,
      "another": 1844,
      "reaction": 1845,
      "ental": 1846,
      "access": 1847,
      "exer": 1848,
      "being": 1849,
      "seg": 1850,
      "plant": 1851,
      "carried": 1852,
      "such": 1853,
      "projected": 1854,
      "amic": 1855,
      "inelig": 1856,
      "scanned": 1857,
      "gentle": 1858,
      "occurred": 1859,
      "culture": 1860,
      "iotherapy": 1861,
      "limits": 1862,
      "duction": 1863,
      "until": 1864,
      "omiting": 1865,
      "azole": 1866,
      "changes": 1867,
      "oxygen": 1868,
      "growth": 1869,
      "coronary": 1870,
      "albumin": 1871,
      "ineligible": 1872,
      "amo": 1873,
      "fact": 1874,
      "ld": 1875,
      "muco": 1876,
      "smo": 1877,
      "ude": 1878,
      "once": 1879,
      "reach": 1880,
      "report": 1881,
      "icu": 1882,
      "olar": 1883,
      "ack": 1884,
      "ternal": 1885,
      "clos": 1886,
      "irub": 1887,
      "meth": 1888,
      "cept": 1889,
      "oneal": 1890,
      "hemoglobin": 1891,
      "rapid": 1892,
      "ultation": 1893,
      "control": 1894,
      "hematoma": 1895,
      "superior": 1896,
      "echo": 1897,
      "necrosis": 1898,
      "bi": 1899,
      "cement": 1900,
      "hal": 1901,
      "las": 1902,
      "mia": 1903,
      "opathy": 1904,
      "oste": 1905,
      "rr": 1906,
      "vomiting": 1907,
      "inary": 1908,
      "ised": 1909,
      "cov": 1910,
      "accord": 1911,
      "termin": 1912,
      "node": 1913,
      "external": 1914,
      "verte": 1915,
      "agulation": 1916,
      "perature": 1917,
      "proximal": 1918,
      "where": 1919,
      "intermit": 1920,
      "poor": 1921,
      "ification": 1922,
      "duration": 1923,
      "bilirub": 1924,
      "cancer": 1925,
      "relia": 1926,
      "struct": 1927,
      "temperature": 1928,
      "reference": 1929,
      "sinus": 1930,
      "sars": 1931,
      "reduced": 1932,
      "metabolism": 1933,
      "fined": 1934,
      "bilirubin": 1935,
      "29": 1936,
      "34": 1937,
      "bro": 1938,
      "ci": 1939,
      "cing": 1940,
      "frequ": 1941,
      "ified": 1942,
      "lit": 1943,
      "leng": 1944,
      "lapar": 1945,
      "mer": 1946,
      "ns": 1947,
      "ode": 1948,
      "pcr": 1949,
      "sw": 1950,
      "sim": 1951,
      "thal": 1952,
      "ori": 1953,
      "entation": 1954,
      "rot": 1955,
      "cope": 1956,
      "height": 1957,
      "ilia": 1958,
      "emb": 1959,
      "febr": 1960,
      "most": 1961,
      "underlying": 1962,
      "antig": 1963,
      "weigh": 1964,
      "odes": 1965,
      "presentation": 1966,
      "several": 1967,
      "treatments": 1968,
      "estig": 1969,
      "medication": 1970,
      "service": 1971,
      "angio": 1972,
      "incision": 1973,
      "previously": 1974,
      "abnormalities": 1975,
      "fracture": 1976,
      "episodes": 1977,
      "bcva": 1978,
      "worsened": 1979,
      "location": 1980,
      "plasty": 1981,
      "gradually": 1982,
      "problems": 1983,
      "prednisone": 1984,
      "prostate": 1985,
      "investig": 1986,
      "according": 1987,
      "eth": 1988,
      "led": 1989,
      "mgl": 1990,
      "sided": 1991,
      "tw": 1992,
      "tro": 1993,
      "tures": 1994,
      "umon": 1995,
      "via": 1996,
      "alk": 1997,
      "itated": 1998,
      "ust": 1999,
      "room": 2000,
      "uration": 2001,
      "heter": 2002,
      "ull": 2003,
      "ulder": 2004,
      "ational": 2005,
      "term": 2006,
      "movement": 2007,
      "prescribed": 2008,
      "shown": 2009,
      "complained": 2010,
      "femur": 2011,
      "ocal": 2012,
      "does": 2013,
      "radiotherapy": 2014,
      "healing": 2015,
      "personal": 2016,
      "needed": 2017,
      "consistently": 2018,
      "appearance": 2019,
      "dysfunction": 2020,
      "pneumon": 2021,
      "successfully": 2022,
      "administr": 2023,
      "radiographs": 2024,
      "hepatitis": 2025,
      "repeat": 2026,
      "inserted": 2027,
      "recovery": 2028,
      "arrival": 2029,
      "peritoneal": 2030,
      "26": 2031,
      "74": 2032,
      "areas": 2033,
      "dim": 2034,
      "flow": 2035,
      "gi": 2036,
      "gested": 2037,
      "ire": 2038,
      "marg": 2039,
      "ovascular": 2040,
      "odies": 2041,
      "rati": 2042,
      "sac": 2043,
      "uary": 2044,
      "vant": 2045,
      "although": 2046,
      "ingu": 2047,
      "defined": 2048,
      "excis": 2049,
      "platin": 2050,
      "igg": 2051,
      "pect": 2052,
      "dissection": 2053,
      "shoulder": 2054,
      "logy": 2055,
      "retro": 2056,
      "ballo": 2057,
      "cultures": 2058,
      "ivity": 2059,
      "biops": 2060,
      "antibodies": 2061,
      "formation": 2062,
      "ectomy": 2063,
      "temp": 2064,
      "ground": 2065,
      "secondary": 2066,
      "effusion": 2067,
      "pleural": 2068,
      "marrow": 2069,
      "episode": 2070,
      "facility": 2071,
      "leading": 2072,
      "injections": 2073,
      "moderate": 2074,
      "segment": 2075,
      "length": 2076,
      "ratio": 2077,
      "aor": 2078,
      "band": 2079,
      "che": 2080,
      "cum": 2081,
      "gy": 2082,
      "hum": 2083,
      "pical": 2084,
      "pho": 2085,
      "ry": 2086,
      "stom": 2087,
      "vital": 2088,
      "recomm": 2089,
      "leu": 2090,
      "acu": 2091,
      "utroph": 2092,
      "expl": 2093,
      "ird": 2094,
      "bet": 2095,
      "sep": 2096,
      "tron": 2097,
      "ogram": 2098,
      "erythro": 2099,
      "presenting": 2100,
      "initially": 2101,
      "trauma": 2102,
      "some": 2103,
      "overload": 2104,
      "space": 2105,
      "gram": 2106,
      "graft": 2107,
      "discharge": 2108,
      "became": 2109,
      "lymphadeno": 2110,
      "specific": 2111,
      "systemic": 2112,
      "auto": 2113,
      "markers": 2114,
      "involvement": 2115,
      "malignant": 2116,
      "techni": 2117,
      "gentleman": 2118,
      "intermittent": 2119,
      "22": 2120,
      "bon": 2121,
      "hiv": 2122,
      "je": 2123,
      "ko": 2124,
      "nar": 2125,
      "rib": 2126,
      "sm": 2127,
      "ss": 2128,
      "sul": 2129,
      "table": 2130,
      "ycin": 2131,
      "atures": 2132,
      "anesthesia": 2133,
      "rease": 2134,
      "repair": 2135,
      "ester": 2136,
      "stim": 2137,
      "acin": 2138,
      "ady": 2139,
      "concer": 2140,
      "ems": 2141,
      "try": 2142,
      "surface": 2143,
      "features": 2144,
      "motor": 2145,
      "bran": 2146,
      "prognos": 2147,
      "ventil": 2148,
      "gm2": 2149,
      "iating": 2150,
      "team": 2151,
      "ipation": 2152,
      "duced": 2153,
      "cognitive": 2154,
      "intensity": 2155,
      "confirms": 2156,
      "arterial": 2157,
      "pattern": 2158,
      "specimen": 2159,
      "genetic": 2160,
      "fixation": 2161,
      "saturation": 2162,
      "pelvis": 2163,
      "minimum": 2164,
      "rotation": 2165,
      "twice": 2166,
      "pneumonia": 2167,
      "balloon": 2168,
      "prognosis": 2169,
      "42": 2170,
      "67": 2171,
      "78": 2172,
      "cc": 2173,
      "hol": 2174,
      "mater": 2175,
      "ril": 2176,
      "vo": 2177,
      "orth": 2178,
      "reli": 2179,
      "review": 2180,
      "asy": 2181,
      "ential": 2182,
      "staining": 2183,
      "nodes": 2184,
      "combin": 2185,
      "abs": 2186,
      "carotid": 2187,
      "hour": 2188,
      "april": 2189,
      "motion": 2190,
      "diar": 2191,
      "ween": 2192,
      "presents": 2193,
      "femoral": 2194,
      "posit": 2195,
      "estim": 2196,
      "times": 2197,
      "described": 2198,
      "ophthal": 2199,
      "bacter": 2200,
      "mediast": 2201,
      "stopped": 2202,
      "extremities": 2203,
      "enhanced": 2204,
      "worsening": 2205,
      "fibro": 2206,
      "antibiotics": 2207,
      "enlarged": 2208,
      "rhea": 2209,
      "stitution": 2210,
      "embol": 2211,
      "antigen": 2212,
      "stomach": 2213,
      "between": 2214,
      "lymphadenopathy": 2215,
      "technique": 2216,
      "95": 2217,
      "ces": 2218,
      "five": 2219,
      "gall": 2220,
      "sd": 2221,
      "tu": 2222,
      "vag": 2223,
      "informed": 2224,
      "ata": 2225,
      "orig": 2226,
      "isol": 2227,
      "ischem": 2228,
      "off": 2229,
      "start": 2230,
      "acet": 2231,
      "deliver": 2232,
      "determin": 2233,
      "clude": 2234,
      "compression": 2235,
      "comfort": 2236,
      "abl": 2237,
      "perform": 2238,
      "ime": 2239,
      "consist": 2240,
      "consultation": 2241,
      "regimen": 2242,
      "2016": 2243,
      "medics": 2244,
      "ologist": 2245,
      "encephal": 2246,
      "intub": 2247,
      "spinal": 2248,
      "extensive": 2249,
      "portal": 2250,
      "plasia": 2251,
      "sedim": 2252,
      "microscop": 2253,
      "cytoplas": 2254,
      "metastases": 2255,
      "midline": 2256,
      "enhancement": 2257,
      "standing": 2258,
      "cutaneous": 2259,
      "paramedics": 2260,
      "drainage": 2261,
      "slightly": 2262,
      "esophage": 2263,
      "affecting": 2264,
      "nucle": 2265,
      "ankle": 2266,
      "echocardi": 2267,
      "administration": 2268,
      "biopsies": 2269,
      "check": 2270,
      "leuko": 2271,
      "diarrhea": 2272,
      "estimated": 2273,
      "73": 2274,
      "ah": 2275,
      "bed": 2276,
      "fall": 2277,
      "hb": 2278,
      "ker": 2279,
      "lor": 2280,
      "pth": 2281,
      "spl": 2282,
      "tb": 2283,
      "tur": 2284,
      "tend": 2285,
      "tail": 2286,
      "wa": 2287,
      "institution": 2288,
      "third": 2289,
      "atro": 2290,
      "enal": 2291,
      "reflex": 2292,
      "ions": 2293,
      "urinary": 2294,
      "stag": 2295,
      "ulted": 2296,
      "lob": 2297,
      "idural": 2298,
      "seek": 2299,
      "trial": 2300,
      "image": 2301,
      "neutroph": 2302,
      "mob": 2303,
      "proto": 2304,
      "ments": 2305,
      "lla": 2306,
      "lip": 2307,
      "morph": 2308,
      "parents": 2309,
      "traction": 2310,
      "ticul": 2311,
      "scans": 2312,
      "bypass": 2313,
      "occlusion": 2314,
      "2018": 2315,
      "many": 2316,
      "epidural": 2317,
      "colle": 2318,
      "relative": 2319,
      "suggested": 2320,
      "pulse": 2321,
      "ecg": 2322,
      "ecmo": 2323,
      "histochem": 2324,
      "fluor": 2325,
      "metastasis": 2326,
      "reduction": 2327,
      "indicating": 2328,
      "records": 2329,
      "measured": 2330,
      "gastrointestinal": 2331,
      "pelvic": 2332,
      "vitre": 2333,
      "toxic": 2334,
      "vertebral": 2335,
      "temporal": 2336,
      "aortic": 2337,
      "sedimentation": 2338,
      "esophageal": 2339,
      "43": 2340,
      "ben": 2341,
      "fill": 2342,
      "focal": 2343,
      "hand": 2344,
      "mus": 2345,
      "pal": 2346,
      "pap": 2347,
      "ru": 2348,
      "uble": 2349,
      "zol": 2350,
      "invas": 2351,
      "thin": 2352,
      "ors": 2353,
      "arction": 2354,
      "arrhythm": 2355,
      "ional": 2356,
      "code": 2357,
      "stain": 2358,
      "unevent": 2359,
      "acer": 2360,
      "defic": 2361,
      "except": 2362,
      "ress": 2363,
      "seiz": 2364,
      "concent": 2365,
      "scar": 2366,
      "brady": 2367,
      "tested": 2368,
      "outpatient": 2369,
      "pri": 2370,
      "pared": 2371,
      "teeth": 2372,
      "tract": 2373,
      "requested": 2374,
      "suspected": 2375,
      "hemodialysis": 2376,
      "tact": 2377,
      "ologic": 2378,
      "cann": 2379,
      "extension": 2380,
      "crp": 2381,
      "intraoperative": 2382,
      "clinically": 2383,
      "approach": 2384,
      "appropri": 2385,
      "operations": 2386,
      "appears": 2387,
      "abnormality": 2388,
      "infarction": 2389,
      "myo": 2390,
      "thorax": 2391,
      "immediately": 2392,
      "metastatic": 2393,
      "breast": 2394,
      "background": 2395,
      "taper": 2396,
      "marked": 2397,
      "ished": 2398,
      "difficult": 2399,
      "cholester": 2400,
      "immunohistochem": 2401,
      "signed": 2402,
      "vessels": 2403,
      "assessment": 2404,
      "mucosa": 2405,
      "laser": 2406,
      "recommended": 2407,
      "protocol": 2408,
      "uneventful": 2409,
      "52": 2410,
      "54": 2411,
      "82": 2412,
      "85": 2413,
      "cu": 2414,
      "chy": 2415,
      "fa": 2416,
      "fused": 2417,
      "mix": 2418,
      "nas": 2419,
      "namic": 2420,
      "ove": 2421,
      "pto": 2422,
      "t1": 2423,
      "targ": 2424,
      "infusion": 2425,
      "instruction": 2426,
      "atr": 2427,
      "alco": 2428,
      "cooperative": 2429,
      "coagulation": 2430,
      "leak": 2431,
      "stu": 2432,
      "acity": 2433,
      "early": 2434,
      "nod": 2435,
      "adder": 2436,
      "ident": 2437,
      "exam": 2438,
      "resid": 2439,
      "compres": 2440,
      "igm": 2441,
      "aine": 2442,
      "aphy": 2443,
      "moid": 2444,
      "pet": 2445,
      "astatin": 2446,
      "preoperative": 2447,
      "ocular": 2448,
      "pregnant": 2449,
      "resuscitated": 2450,
      "drop": 2451,
      "examinations": 2452,
      "mm3": 2453,
      "remaining": 2454,
      "signal": 2455,
      "intensive": 2456,
      "open": 2457,
      "spine": 2458,
      "125": 2459,
      "confirm": 2460,
      "develop": 2461,
      "bladder": 2462,
      "dyspne": 2463,
      "ultrason": 2464,
      "march": 2465,
      "drugs": 2466,
      "aspiration": 2467,
      "adenocarcinoma": 2468,
      "located": 2469,
      "rectal": 2470,
      "satis": 2471,
      "vari": 2472,
      "complaint": 2473,
      "recently": 2474,
      "suggestive": 2475,
      "thrombosis": 2476,
      "occip": 2477,
      "eosinophil": 2478,
      "half": 2479,
      "iliac": 2480,
      "movements": 2481,
      "inguinal": 2482,
      "photo": 2483,
      "orthop": 2484,
      "instructions": 2485,
      "alcohol": 2486,
      "33": 2487,
      "cise": 2488,
      "dig": 2489,
      "down": 2490,
      "dna": 2491,
      "eg": 2492,
      "fat": 2493,
      "fron": 2494,
      "gran": 2495,
      "hor": 2496,
      "ient": 2497,
      "mand": 2498,
      "o2": 2499,
      "pin": 2500,
      "rna": 2501,
      "tain": 2502,
      "uvant": 2503,
      "vastatin": 2504,
      "include": 2505,
      "intact": 2506,
      "ates": 2507,
      "attem": 2508,
      "enzy": 2509,
      "reh": 2510,
      "asc": 2511,
      "icle": 2512,
      "ician": 2513,
      "usa": 2514,
      "esr": 2515,
      "leen": 2516,
      "stren": 2517,
      "unct": 2518,
      "acter": 2519,
      "close": 2520,
      "ides": 2521,
      "ctious": 2522,
      "exacer": 2523,
      "irr": 2524,
      "chain": 2525,
      "umo": 2526,
      "apse": 2527,
      "cycle": 2528,
      "neo": 2529,
      "dium": 2530,
      "direct": 2531,
      "life": 2532,
      "illin": 2533,
      "ibility": 2534,
      "prof": 2535,
      "infectious": 2536,
      "shows": 2537,
      "initiating": 2538,
      "ampl": 2539,
      "reasing": 2540,
      "csf": 2541,
      "eventually": 2542,
      "examined": 2543,
      "would": 2544,
      "spleen": 2545,
      "includes": 2546,
      "extending": 2547,
      "mptomatic": 2548,
      "iuml": 2549,
      "complex": 2550,
      "desc": 2551,
      "400": 2552,
      "needs": 2553,
      "histological": 2554,
      "procedures": 2555,
      "whole": 2556,
      "effect": 2557,
      "angiogram": 2558,
      "iii": 2559,
      "guided": 2560,
      "sarah": 2561,
      "recorded": 2562,
      "regularly": 2563,
      "solid": 2564,
      "thickness": 2565,
      "screening": 2566,
      "differenti": 2567,
      "single": 2568,
      "adjuvant": 2569,
      "resolved": 2570,
      "shape": 2571,
      "excluding": 2572,
      "lumbar": 2573,
      "rapidly": 2574,
      "asymptomatic": 2575,
      "origin": 2576,
      "arrhythmia": 2577,
      "concentr": 2578,
      "attempt": 2579,
      "streng": 2580,
      "exacerb": 2581,
      "46": 2582,
      "59": 2583,
      "aa": 2584,
      "ae": 2585,
      "bic": 2586,
      "bir": 2587,
      "density": 2588,
      "data": 2589,
      "gous": 2590,
      "hib": 2591,
      "hip": 2592,
      "ik": 2593,
      "la": 2594,
      "lac": 2595,
      "lact": 2596,
      "ldl": 2597,
      "mut": 2598,
      "otomy": 2599,
      "pse": 2600,
      "pane": 2601,
      "qt": 2602,
      "rist": 2603,
      "tical": 2604,
      "ue": 2605,
      "allow": 2606,
      "oration": 2607,
      "orrh": 2608,
      "anemia": 2609,
      "itch": 2610,
      "ising": 2611,
      "uria": 2612,
      "stabil": 2613,
      "ules": 2614,
      "loy": 2615,
      "loid": 2616,
      "class": 2617,
      "cline": 2618,
      "below": 2619,
      "beats": 2620,
      "congest": 2621,
      "hydr": 2622,
      "emission": 2623,
      "cham": 2624,
      "china": 2625,
      "implant": 2626,
      "umab": 2627,
      "mean": 2628,
      "supr": 2629,
      "discontinued": 2630,
      "ureter": 2631,
      "regres": 2632,
      "2015": 2633,
      "circum": 2634,
      "duod": 2635,
      "corre": 2636,
      "150": 2637,
      "transfusion": 2638,
      "portion": 2639,
      "images": 2640,
      "physician": 2641,
      "pulp": 2642,
      "evident": 2643,
      "000": 2644,
      "cytosis": 2645,
      "progression": 2646,
      "radiological": 2647,
      "thickening": 2648,
      "discus": 2649,
      "screw": 2650,
      "tenderness": 2651,
      "maintained": 2652,
      "zygous": 2653,
      "participation": 2654,
      "limbs": 2655,
      "bpm": 2656,
      "similar": 2657,
      "alkal": 2658,
      "erythrocyte": 2659,
      "smear": 2660,
      "branch": 2661,
      "tube": 2662,
      "vaginal": 2663,
      "consisting": 2664,
      "tendon": 2665,
      "toxicity": 2666,
      "appropriate": 2667,
      "tapered": 2668,
      "target": 2669,
      "residual": 2670,
      "dyspnea": 2671,
      "orthoped": 2672,
      "rehabil": 2673,
      "birth": 2674,
      "chamber": 2675,
      "47": 2676,
      "49": 2677,
      "56": 2678,
      "61": 2679,
      "71": 2680,
      "bly": 2681,
      "ded": 2682,
      "dden": 2683,
      "even": 2684,
      "fast": 2685,
      "fine": 2686,
      "ges": 2687,
      "hall": 2688,
      "ival": 2689,
      "iary": 2690,
      "lt": 2691,
      "ling": 2692,
      "moll": 2693,
      "molar": 2694,
      "pus": 2695,
      "pup": 2696,
      "ption": 2697,
      "sil": 2698,
      "ucin": 2699,
      "attac": 2700,
      "aracter": 2701,
      "entin": 2702,
      "ither": 2703,
      "olone": 2704,
      "ulty": 2705,
      "accomp": 2706,
      "utum": 2707,
      "vered": 2708,
      "agre": 2709,
      "minute": 2710,
      "scr": 2711,
      "iga": 2712,
      "character": 2713,
      "sudden": 2714,
      "cephal": 2715,
      "surge": 2716,
      "dip": 2717,
      "died": 2718,
      "phase": 2719,
      "samp": 2720,
      "daugh": 2721,
      "ticular": 2722,
      "commun": 2723,
      "retinal": 2724,
      "aryn": 2725,
      "tense": 2726,
      "ologies": 2727,
      "hydrox": 2728,
      "cortic": 2729,
      "ayed": 2730,
      "dry": 2731,
      "sputum": 2732,
      "symptomatic": 2733,
      "histopathological": 2734,
      "complicated": 2735,
      "nause": 2736,
      "radiographic": 2737,
      "colonoscopy": 2738,
      "take": 2739,
      "electroly": 2740,
      "standard": 2741,
      "fixed": 2742,
      "difficulty": 2743,
      "istry": 2744,
      "differential": 2745,
      "complaints": 2746,
      "numer": 2747,
      "sigmoid": 2748,
      "gave": 2749,
      "exercise": 2750,
      "factor": 2751,
      "ldh": 2752,
      "closed": 2753,
      "reliably": 2754,
      "oriented": 2755,
      "investigations": 2756,
      "human": 2757,
      "ventilation": 2758,
      "ophthalm": 2759,
      "ischemic": 2760,
      "hormon": 2761,
      "pseud": 2762,
      "panel": 2763,
      "rehabilitation": 2764,
      "sample": 2765,
      "daughter": 2766,
      "32": 2767,
      "64": 2768,
      "aug": 2769,
      "bm": 2770,
      "bab": 2771,
      "cand": 2772,
      "ding": 2773,
      "dos": 2774,
      "dental": 2775,
      "fos": 2776,
      "flo": 2777,
      "hl": 2778,
      "mis": 2779,
      "mide": 2780,
      "mgm2": 2781,
      "pp": 2782,
      "rash": 2783,
      "swe": 2784,
      "sick": 2785,
      "tt": 2786,
      "wer": 2787,
      "wid": 2788,
      "yl": 2789,
      "thigh": 2790,
      "thma": 2791,
      "enced": 2792,
      "anas": 2793,
      "rec": 2794,
      "rele": 2795,
      "asthma": 2796,
      "ited": 2797,
      "arth": 2798,
      "stic": 2799,
      "unchanged": 2800,
      "deterior": 2801,
      "cler": 2802,
      "clus": 2803,
      "ages": 2804,
      "common": 2805,
      "sec": 2806,
      "above": 2807,
      "minor": 2808,
      "mono": 2809,
      "chlor": 2810,
      "homo": 2811,
      "cyclo": 2812,
      "surround": 2813,
      "feeding": 2814,
      "modi": 2815,
      "process": 2816,
      "diver": 2817,
      "restric": 2818,
      "ficial": 2819,
      "ibular": 2820,
      "phr": 2821,
      "phil": 2822,
      "endome": 2823,
      "samin": 2824,
      "izumab": 2825,
      "file": 2826,
      "cause": 2827,
      "masses": 2828,
      "logic": 2829,
      "depos": 2830,
      "deploy": 2831,
      "suspic": 2832,
      "establ": 2833,
      "duct": 2834,
      "obvious": 2835,
      "sodium": 2836,
      "epi": 2837,
      "epile": 2838,
      "transamin": 2839,
      "increasing": 2840,
      "shunt": 2841,
      "extub": 2842,
      "omy": 2843,
      "arteries": 2844,
      "decision": 2845,
      "entire": 2846,
      "spect": 2847,
      "frag": 2848,
      "values": 2849,
      "structed": 2850,
      "tempor": 2851,
      "interventions": 2852,
      "gue": 2853,
      "bronchial": 2854,
      "indicated": 2855,
      "self": 2856,
      "involving": 2857,
      "aspirin": 2858,
      "superficial": 2859,
      "infiltration": 2860,
      "pursu": 2861,
      "haemorrh": 2862,
      "cortisol": 2863,
      "shaped": 2864,
      "dynamic": 2865,
      "tolic": 2866,
      "reaching": 2867,
      "febrile": 2868,
      "material": 2869,
      "positron": 2870,
      "echocardiography": 2871,
      "rule": 2872,
      "strength": 2873,
      "exacerbation": 2874,
      "communic": 2875,
      "pseudo": 2876,
      "anastom": 2877,
      "08": 2878,
      "77": 2879,
      "bor": 2880,
      "base": 2881,
      "cad": 2882,
      "ez": 2883,
      "eight": 2884,
      "fati": 2885,
      "fold": 2886,
      "gno": 2887,
      "jor": 2888,
      "kc": 2889,
      "lad": 2890,
      "luc": 2891,
      "near": 2892,
      "nine": 2893,
      "oct": 2894,
      "pate": 2895,
      "punct": 2896,
      "ring": 2897,
      "sent": 2898,
      "sph": 2899,
      "t2": 2900,
      "tib": 2901,
      "umin": 2902,
      "uch": 2903,
      "wire": 2904,
      "intense": 2905,
      "ency": 2906,
      "orb": 2907,
      "ana": 2908,
      "anied": 2909,
      "recon": 2910,
      "retr": 2911,
      "ites": 2912,
      "icular": 2913,
      "stal": 2914,
      "stant": 2915,
      "stents": 2916,
      "units": 2917,
      "uled": 2918,
      "ulated": 2919,
      "detail": 2920,
      "patible": 2921,
      "adr": 2922,
      "adrenal": 2923,
      "diaphr": 2924,
      "agm": 2925,
      "resected": 2926,
      "compared": 2927,
      "compatible": 2928,
      "beta": 2929,
      "dermat": 2930,
      "chor": 2931,
      "chan": 2932,
      "hout": 2933,
      "meet": 2934,
      "afp": 2935,
      "disse": 2936,
      "discomfort": 2937,
      "dire": 2938,
      "undergo": 2939,
      "hern": 2940,
      "ills": 2941,
      "prevent": 2942,
      "ibuted": 2943,
      "endoscopic": 2944,
      "may": 2945,
      "major": 2946,
      "conser": 2947,
      "consisted": 2948,
      "parent": 2949,
      "parotid": 2950,
      "interval": 2951,
      "pot": 2952,
      "trache": 2953,
      "diseases": 2954,
      "normalized": 2955,
      "ughout": 2956,
      "amino": 2957,
      "events": 2958,
      "mgkg": 2959,
      "manif": 2960,
      "activ": 2961,
      "ught": 2962,
      "strong": 2963,
      "sought": 2964,
      "radical": 2965,
      "option": 2966,
      "500": 2967,
      "distress": 2968,
      "ief": 2969,
      "canine": 2970,
      "elective": 2971,
      "omic": 2972,
      "pathologic": 2973,
      "persisted": 2974,
      "sequence": 2975,
      "axis": 2976,
      "axillary": 2977,
      "actively": 2978,
      "pneumo": 2979,
      "guid": 2980,
      "shortness": 2981,
      "cisplatin": 2982,
      "throughout": 2983,
      "thrombo": 2984,
      "stool": 2985,
      "alpha": 2986,
      "radiation": 2987,
      "enteric": 2988,
      "pancre": 2989,
      "plastic": 2990,
      "problem": 2991,
      "haemat": 2992,
      "member": 2993,
      "resolution": 2994,
      "palpable": 2995,
      "tuber": 2996,
      "laparoscopic": 2997,
      "switch": 2998,
      "weighed": 2999,
      "acuity": 3000,
      "bony": 3001,
      "combination": 3002,
      "collection": 3003,
      "nasal": 3004,
      "studies": 3005,
      "ultrasonography": 3006,
      "mandibular": 3007,
      "descending": 3008,
      "mutation": 3009,
      "accompanied": 3010,
      "agreed": 3011,
      "cortico": 3012,
      "nausea": 3013,
      "fossa": 3014,
      "surrounding": 3015,
      "epithe": 3016,
      "gnostic": 3017,
      "diaphragm": 3018,
      "120": 3019,
      "110": 3020,
      "27": 3021,
      "53": 3022,
      "63": 3023,
      "99": 3024,
      "aort": 3025,
      "burs": 3026,
      "cg": 3027,
      "cp": 3028,
      "dic": 3029,
      "fing": 3030,
      "fil": 3031,
      "ged": 3032,
      "iro": 3033,
      "ires": 3034,
      "imin": 3035,
      "iet": 3036,
      "jan": 3037,
      "ked": 3038,
      "lial": 3039,
      "late": 3040,
      "nm": 3041,
      "nes": 3042,
      "national": 3043,
      "pf": 3044,
      "pen": 3045,
      "sle": 3046,
      "sess": 3047,
      "slow": 3048,
      "sized": 3049,
      "tit": 3050,
      "tissues": 3051,
      "vative": 3052,
      "wbc": 3053,
      "yn": 3054,
      "zed": 3055,
      "μgl": 3056,
      "atation": 3057,
      "attr": 3058,
      "alt": 3059,
      "edge": 3060,
      "real": 3061,
      "ased": 3062,
      "itant": 3063,
      "itary": 3064,
      "arch": 3065,
      "icd": 3066,
      "iced": 3067,
      "coun": 3068,
      "stone": 3069,
      "acc": 3070,
      "acent": 3071,
      "decem": 3072,
      "earch": 3073,
      "now": 3074,
      "nodu": 3075,
      "adol": 3076,
      "advis": 3077,
      "exon": 3078,
      "expos": 3079,
      "resulted": 3080,
      "comitant": 3081,
      "seven": 3082,
      "illi": 3083,
      "concomitant": 3084,
      "embr": 3085,
      "empir": 3086,
      "peric": 3087,
      "cysto": 3088,
      "ogenic": 3089,
      "syphil": 3090,
      "shock": 3091,
      "causing": 3092,
      "ambul": 3093,
      "potent": 3094,
      "power": 3095,
      "partial": 3096,
      "2014": 3097,
      "figs": 3098,
      "obstru": 3099,
      "foreign": 3100,
      "overnight": 3101,
      "visible": 3102,
      "transverse": 3103,
      "transplant": 3104,
      "increase": 3105,
      "grav": 3106,
      "curring": 3107,
      "vena": 3108,
      "sequen": 3109,
      "135": 3110,
      "significantly": 3111,
      "azol": 3112,
      "gross": 3113,
      "denies": 3114,
      "avail": 3115,
      "cava": 3116,
      "mildly": 3117,
      "working": 3118,
      "transferase": 3119,
      "aucoma": 3120,
      "sections": 3121,
      "antico": 3122,
      "airway": 3123,
      "electrocardi": 3124,
      "fibular": 3125,
      "capacity": 3126,
      "polymer": 3127,
      "dilatation": 3128,
      "metabolic": 3129,
      "malignancy": 3130,
      "junction": 3131,
      "finally": 3132,
      "atorvastatin": 3133,
      "suggesting": 3134,
      "steroids": 3135,
      "gait": 3136,
      "palpation": 3137,
      "galy": 3138,
      "smoking": 3139,
      "osteos": 3140,
      "structures": 3141,
      "frequently": 3142,
      "february": 3143,
      "weighted": 3144,
      "mediastinal": 3145,
      "delivery": 3146,
      "encephalopathy": 3147,
      "intubation": 3148,
      "cytoplasmic": 3149,
      "staging": 3150,
      "lobulin": 3151,
      "seeks": 3152,
      "muscles": 3153,
      "deficit": 3154,
      "myocar": 3155,
      "variant": 3156,
      "enzymes": 3157,
      "concentration": 3158,
      "congestion": 3159,
      "regression": 3160,
      "hormone": 3161,
      "august": 3162,
      "sickness": 3163,
      "fragment": 3164,
      "members": 3165,
      "aorta": 3166,
      "january": 3167,
      "attributed": 3168,
      "december": 3169,
      "nodule": 3170,
      "advised": 3171,
      "embry": 3172,
      "obstructive": 3173,
      "polymerase": 3174,
      "44": 3175,
      "83": 3176,
      "ament": 3177,
      "bur": 3178,
      "c3": 3179,
      "cv": 3180,
      "cat": 3181,
      "cus": 3182,
      "cation": 3183,
      "dle": 3184,
      "equ": 3185,
      "fro": 3186,
      "fist": 3187,
      "gon": 3188,
      "h2": 3189,
      "iform": 3190,
      "jap": 3191,
      "lam": 3192,
      "phe": 3193,
      "pig": 3194,
      "sen": 3195,
      "sut": 3196,
      "sag": 3197,
      "sys": 3198,
      "sunit": 3199,
      "ux": 3200,
      "wal": 3201,
      "xacin": 3202,
      "μmoll": 3203,
      "inib": 3204,
      "induced": 3205,
      "onco": 3206,
      "enosis": 3207,
      "ored": 3208,
      "anter": 3209,
      "asian": 3210,
      "aspect": 3211,
      "icted": 3212,
      "they": 3213,
      "rogen": 3214,
      "ithrom": 3215,
      "lev": 3216,
      "stenosis": 3217,
      "unately": 3218,
      "olid": 3219,
      "ulnar": 3220,
      "acted": 3221,
      "def": 3222,
      "degener": 3223,
      "lomit": 3224,
      "loxacin": 3225,
      "aden": 3226,
      "clonal": 3227,
      "exhib": 3228,
      "agic": 3229,
      "resh": 3230,
      "compr": 3231,
      "const": 3232,
      "minated": 3233,
      "scap": 3234,
      "istic": 3235,
      "perio": 3236,
      "apide": 3237,
      "appoint": 3238,
      "mel": 3239,
      "necess": 3240,
      "medull": 3241,
      "llar": 3242,
      "hamide": 3243,
      "typical": 3244,
      "uptake": 3245,
      "endo": 3246,
      "endoscopy": 3247,
      "consolid": 3248,
      "odon": 3249,
      "urea": 3250,
      "ureth": 3251,
      "amik": 3252,
      "compliant": 3253,
      "obstruction": 3254,
      "phosphamide": 3255,
      "boy": 3256,
      "angle": 3257,
      "transcr": 3258,
      "intro": 3259,
      "substant": 3260,
      "pediatric": 3261,
      "tumors": 3262,
      "experience": 3263,
      "micr": 3264,
      "value": 3265,
      "bacilli": 3266,
      "recept": 3267,
      "histopathology": 3268,
      "adequ": 3269,
      "added": 3270,
      "operating": 3271,
      "change": 3272,
      "receiving": 3273,
      "bronchoscopy": 3274,
      "indicate": 3275,
      "middle": 3276,
      "infiltrates": 3277,
      "lymphocytes": 3278,
      "dilated": 3279,
      "minimal": 3280,
      "june": 3281,
      "repeated": 3282,
      "scopy": 3283,
      "prednisolone": 3284,
      "adjacent": 3285,
      "saline": 3286,
      "enlargement": 3287,
      "fortunately": 3288,
      "readily": 3289,
      "cortical": 3290,
      "toler": 3291,
      "excluded": 3292,
      "sched": 3293,
      "schiz": 3294,
      "situ": 3295,
      "reliable": 3296,
      "structure": 3297,
      "frequent": 3298,
      "hetero": 3299,
      "heterog": 3300,
      "dimension": 3301,
      "excision": 3302,
      "ject": 3303,
      "rotationplasty": 3304,
      "relie": 3305,
      "bacterial": 3306,
      "starting": 3307,
      "atrophy": 3308,
      "seizures": 3309,
      "cannula": 3310,
      "cholesterol": 3311,
      "development": 3312,
      "irrig": 3313,
      "orthopedist": 3314,
      "candid": 3315,
      "cyclophosphamide": 3316,
      "restricted": 3317,
      "conservative": 3318,
      "syphilis": 3319,
      "fistula": 3320,
      "japan": 3321,
      "systolic": 3322,
      "sunitinib": 3323,
      "lomitapide": 3324,
      "amikacin": 3325,
      "transcrip": 3326,
      "065": 3327,
      "76": 3328,
      "88": 3329,
      "97": 3330,
      "bes": 3331,
      "bear": 3332,
      "border": 3333,
      "cence": 3334,
      "eb": 3335,
      "either": 3336,
      "gic": 3337,
      "lid": 3338,
      "lack": 3339,
      "mening": 3340,
      "nv": 3341,
      "oth": 3342,
      "pit": 3343,
      "pia": 3344,
      "pty": 3345,
      "ptic": 3346,
      "rca": 3347,
      "squ": 3348,
      "soc": 3349,
      "stomy": 3350,
      "tear": 3351,
      "vac": 3352,
      "μgml": 3353,
      "intr": 3354,
      "instructed": 3355,
      "ervical": 3356,
      "onic": 3357,
      "aty": 3358,
      "atus": 3359,
      "enchy": 3360,
      "almost": 3361,
      "orific": 3362,
      "anx": 3363,
      "anat": 3364,
      "recurring": 3365,
      "itivity": 3366,
      "arran": 3367,
      "thesis": 3368,
      "usual": 3369,
      "ofaz": 3370,
      "iable": 3371,
      "cocc": 3372,
      "urb": 3373,
      "ured": 3374,
      "unfortunately": 3375,
      "hepar": 3376,
      "diagnostic": 3377,
      "clofaz": 3378,
      "agia": 3379,
      "aggres": 3380,
      "research": 3381,
      "irregular": 3382,
      "come": 3383,
      "compro": 3384,
      "comycin": 3385,
      "beg": 3386,
      "separ": 3387,
      "ritis": 3388,
      "pla": 3389,
      "condu": 3390,
      "convention": 3391,
      "concurrent": 3392,
      "mind": 3393,
      "minant": 3394,
      "hyal": 3395,
      "istance": 3396,
      "tria": 3397,
      "mechan": 3398,
      "neural": 3399,
      "hosis": 3400,
      "fell": 3401,
      "pec": 3402,
      "cea": 3403,
      "ception": 3404,
      "quadr": 3405,
      "glass": 3406,
      "sheath": 3407,
      "oglobulin": 3408,
      "pread": 3409,
      "preser": 3410,
      "erythe": 3411,
      "assium": 3412,
      "noticed": 3413,
      "phagia": 3414,
      "said": 3415,
      "prone": 3416,
      "max": 3417,
      "infections": 3418,
      "computer": 3419,
      "po2": 3420,
      "injected": 3421,
      "requires": 3422,
      "retina": 3423,
      "functioning": 3424,
      "2010": 3425,
      "ordered": 3426,
      "sensation": 3427,
      "sensitivity": 3428,
      "cirr": 3429,
      "owned": 3430,
      "diagnoses": 3431,
      "idemia": 3432,
      "calcem": 3433,
      "opening": 3434,
      "optical": 3435,
      "dural": 3436,
      "distant": 3437,
      "disturb": 3438,
      "healed": 3439,
      "improve": 3440,
      "decrease": 3441,
      "ophren": 3442,
      "append": 3443,
      "lungs": 3444,
      "muscular": 3445,
      "localized": 3446,
      "radiography": 3447,
      "generalized": 3448,
      "stead": 3449,
      "bronchus": 3450,
      "inflammation": 3451,
      "vancomycin": 3452,
      "elevation": 3453,
      "mesenteric": 3454,
      "omegaly": 3455,
      "thyroidism": 3456,
      "rophic": 3457,
      "vitamin": 3458,
      "insertion": 3459,
      "legs": 3460,
      "visited": 3461,
      "rheum": 3462,
      "ready": 3463,
      "occas": 3464,
      "additionally": 3465,
      "esophag": 3466,
      "linear": 3467,
      "amount": 3468,
      "margin": 3469,
      "excised": 3470,
      "stimulation": 3471,
      "relief": 3472,
      "checking": 3473,
      "leukocyte": 3474,
      "neutrophil": 3475,
      "lipidemia": 3476,
      "vitreous": 3477,
      "invasion": 3478,
      "bradycardia": 3479,
      "immunohistochemical": 3480,
      "ptosis": 3481,
      "amplit": 3482,
      "attempts": 3483,
      "hallucin": 3484,
      "characteristic": 3485,
      "hydroxide": 3486,
      "modified": 3487,
      "diverticul": 3488,
      "established": 3489,
      "anastomosis": 3490,
      "fatigue": 3491,
      "lucid": 3492,
      "patella": 3493,
      "reconstruction": 3494,
      "potassium": 3495,
      "activities": 3496,
      "imine": 3497,
      "accident": 3498,
      "pericar": 3499,
      "potential": 3500,
      "azolam": 3501,
      "myocardial": 3502,
      "ithromycin": 3503,
      "definit": 3504,
      "exhibited": 3505,
      "scheduled": 3506,
      "squamo": 3507,
      "coccus": 3508,
      "heparin": 3509,
      "clofazimine": 3510,
      "conventional": 3511,
      "quadrant": 3512,
      "07": 3513,
      "130": 3514,
      "57": 3515,
      "81": 3516,
      "84": 3517,
      "bun": 3518,
      "bcl": 3519,
      "bial": 3520,
      "cast": 3521,
      "dentin": 3522,
      "ev": 3523,
      "evol": 3524,
      "foci": 3525,
      "gt": 3526,
      "gone": 3527,
      "hard": 3528,
      "iver": 3529,
      "ift": 3530,
      "ky": 3531,
      "kul": 3532,
      "lay": 3533,
      "mas": 3534,
      "mur": 3535,
      "mpl": 3536,
      "mise": 3537,
      "nic": 3538,
      "pas": 3539,
      "rt": 3540,
      "sk": 3541,
      "sl": 3542,
      "scler": 3543,
      "uth": 3544,
      "walk": 3545,
      "inum": 3546,
      "eries": 3547,
      "ond": 3548,
      "att": 3549,
      "atous": 3550,
      "attent": 3551,
      "enro": 3552,
      "ano": 3553,
      "rectomy": 3554,
      "reverse": 3555,
      "asone": 3556,
      "arms": 3557,
      "ention": 3558,
      "ese": 3559,
      "toward": 3560,
      "iae": 3561,
      "olol": 3562,
      "oscope": 3563,
      "degre": 3564,
      "deform": 3565,
      "depression": 3566,
      "veins": 3567,
      "formin": 3568,
      "forward": 3569,
      "adult": 3570,
      "cla": 3571,
      "extra": 3572,
      "versus": 3573,
      "pler": 3574,
      "conver": 3575,
      "confusion": 3576,
      "scat": 3577,
      "scene": 3578,
      "igently": 3579,
      "chief": 3580,
      "perine": 3581,
      "carbo": 3582,
      "import": 3583,
      "cytic": 3584,
      "never": 3585,
      "sule": 3586,
      "mobil": 3587,
      "brane": 3588,
      "peter": 3589,
      "proce": 3590,
      "promp": 3591,
      "prophy": 3592,
      "dislocation": 3593,
      "surgeries": 3594,
      "glaucoma": 3595,
      "undergone": 3596,
      "illumin": 3597,
      "outside": 3598,
      "prepar": 3599,
      "notable": 3600,
      "histio": 3601,
      "endovascular": 3602,
      "sampl": 3603,
      "make": 3604,
      "ventricle": 3605,
      "paral": 3606,
      "parenchy": 3607,
      "caused": 3608,
      "cauc": 3609,
      "genital": 3610,
      "teen": 3611,
      "interstit": 3612,
      "pathic": 3613,
      "centile": 3614,
      "require": 3615,
      "eti": 3616,
      "2020": 3617,
      "2013": 3618,
      "2017": 3619,
      "drops": 3620,
      "600": 3621,
      "continuously": 3622,
      "decompensation": 3623,
      "foveal": 3624,
      "mmh": 3625,
      "rium": 3626,
      "calcul": 3627,
      "opac": 3628,
      "transthoracic": 3629,
      "incid": 3630,
      "tumour": 3631,
      "distin": 3632,
      "distension": 3633,
      "shift": 3634,
      "iety": 3635,
      "metformin": 3636,
      "completed": 3637,
      "omas": 3638,
      "hyperplasia": 3639,
      "veloc": 3640,
      "nerves": 3641,
      "bilaterally": 3642,
      "oidal": 3643,
      "azithromycin": 3644,
      "analy": 3645,
      "raphic": 3646,
      "evaluated": 3647,
      "demonstrating": 3648,
      "progressed": 3649,
      "mitral": 3650,
      "applied": 3651,
      "immunoglobulin": 3652,
      "olytic": 3653,
      "gastroenter": 3654,
      "longed": 3655,
      "syncope": 3656,
      "facial": 3657,
      "picture": 3658,
      "points": 3659,
      "capsule": 3660,
      "took": 3661,
      "difficile": 3662,
      "progressively": 3663,
      "diligently": 3664,
      "gradual": 3665,
      "necrotic": 3666,
      "cholangio": 3667,
      "number": 3668,
      "membrane": 3669,
      "recovered": 3670,
      "thrombus": 3671,
      "sounds": 3672,
      "collateral": 3673,
      "assessed": 3674,
      "rupture": 3675,
      "tubular": 3676,
      "eneous": 3677,
      "brother": 3678,
      "trouble": 3679,
      "margins": 3680,
      "tronic": 3681,
      "stimul": 3682,
      "concern": 3683,
      "concerning": 3684,
      "mediastinum": 3685,
      "microscopic": 3686,
      "neutrophils": 3687,
      "relatively": 3688,
      "filled": 3689,
      "filling": 3690,
      "markedly": 3691,
      "mixed": 3692,
      "atrial": 3693,
      "compressed": 3694,
      "eosinophilic": 3695,
      "frontal": 3696,
      "lactate": 3697,
      "duoden": 3698,
      "screws": 3699,
      "alkaline": 3700,
      "attack": 3701,
      "aryng": 3702,
      "numerous": 3703,
      "floor": 3704,
      "deployed": 3705,
      "extubated": 3706,
      "pursuing": 3707,
      "folds": 3708,
      "puncture": 3709,
      "manifest": 3710,
      "options": 3711,
      "bursal": 3712,
      "finger": 3713,
      "anticoagulation": 3714,
      "appointment": 3715,
      "adequate": 3716,
      "schizophren": 3717,
      "heterozygous": 3718,
      "heterogeneous": 3719,
      "candidate": 3720,
      "aggressive": 3721,
      "conducted": 3722,
      "computerized": 3723,
      "cirrhosis": 3724,
      "calcemia": 3725,
      "rheumat": 3726,
      "pericardial": 3727,
      "squamous": 3728,
      "important": 3729,
      "caucasian": 3730,
      "cholangiocarcinoma": 3731,
      "02": 3732,
      "09": 3733,
      "170": 3734,
      "250": 3735,
      "79": 3736,
      "92": 3737,
      "94": 3738,
      "bness": 3739,
      "cure": 3740,
      "cran": 3741,
      "creas": 3742,
      "cranial": 3743,
      "call": 3744,
      "ds": 3745,
      "dark": 3746,
      "eas": 3747,
      "eut": 3748,
      "fn": 3749,
      "fy": 3750,
      "far": 3751,
      "gir": 3752,
      "gfr": 3753,
      "hns": 3754,
      "ias": 3755,
      "jul": 3756,
      "kgm2": 3757,
      "lens": 3758,
      "mber": 3759,
      "nit": 3760,
      "nsaid": 3761,
      "ovar": 3762,
      "pi": 3763,
      "py": 3764,
      "pale": 3765,
      "pine": 3766,
      "pace": 3767,
      "pgml": 3768,
      "penic": 3769,
      "pack": 3770,
      "run": 3771,
      "rid": 3772,
      "slit": 3773,
      "spread": 3774,
      "tf": 3775,
      "til": 3776,
      "uxim": 3777,
      "vul": 3778,
      "vdr": 3779,
      "ware": 3780,
      "wrist": 3781,
      "ino": 3782,
      "instr": 3783,
      "infr": 3784,
      "thric": 3785,
      "onu": 3786,
      "ongo": 3787,
      "atase": 3788,
      "alan": 3789,
      "ores": 3790,
      "itative": 3791,
      "ittal": 3792,
      "arily": 3793,
      "articular": 3794,
      "isation": 3795,
      "icro": 3796,
      "toma": 3797,
      "toge": 3798,
      "iaz": 3799,
      "costal": 3800,
      "lect": 3801,
      "stained": 3802,
      "unrestricted": 3803,
      "olateral": 3804,
      "heav": 3805,
      "ulo": 3806,
      "ulmonary": 3807,
      "acth": 3808,
      "ostomy": 3809,
      "debr": 3810,
      "decline": 3811,
      "vember": 3812,
      "earli": 3813,
      "november": 3814,
      "adher": 3815,
      "adverse": 3816,
      "idal": 3817,
      "extrac": 3818,
      "agon": 3819,
      "agent": 3820,
      "aggrav": 3821,
      "ired": 3822,
      "seal": 3823,
      "conne": 3824,
      "conjun": 3825,
      "conduction": 3826,
      "emed": 3827,
      "trus": 3828,
      "chole": 3829,
      "imal": 3830,
      "umed": 3831,
      "aphas": 3832,
      "medtronic": 3833,
      "promin": 3834,
      "protr": 3835,
      "produ": 3836,
      "proband": 3837,
      "cef": 3838,
      "astic": 3839,
      "antim": 3840,
      "ogen": 3841,
      "valve": 3842,
      "kept": 3843,
      "keloid": 3844,
      "pharm": 3845,
      "contained": 3846,
      "therapeut": 3847,
      "international": 3848,
      "pole": 3849,
      "inuclear": 3850,
      "suscept": 3851,
      "regulation": 3852,
      "uge": 3853,
      "limp": 3854,
      "ocervical": 3855,
      "dropped": 3856,
      "medicine": 3857,
      "sensory": 3858,
      "thereafter": 3859,
      "otro": 3860,
      "maker": 3861,
      "double": 3862,
      "germany": 3863,
      "phosphatase": 3864,
      "remain": 3865,
      "eps": 3866,
      "weekly": 3867,
      "opulmonary": 3868,
      "subscap": 3869,
      "distended": 3870,
      "carefully": 3871,
      "ieve": 3872,
      "cry": 3873,
      "hypercalcemia": 3874,
      "relapse": 3875,
      "worse": 3876,
      "neurosurgery": 3877,
      "sister": 3878,
      "eling": 3879,
      "cysts": 3880,
      "emergent": 3881,
      "cardiovascular": 3882,
      "cardiopulmonary": 3883,
      "hypothyroidism": 3884,
      "myco": 3885,
      "cytology": 3886,
      "measure": 3887,
      "steal": 3888,
      "reduce": 3889,
      "calcified": 3890,
      "colonic": 3891,
      "basal": 3892,
      "detect": 3893,
      "defects": 3894,
      "aspirated": 3895,
      "possibility": 3896,
      "mesial": 3897,
      "solution": 3898,
      "acidosis": 3899,
      "passed": 3900,
      "infiltrating": 3901,
      "pancreas": 3902,
      "considering": 3903,
      "impaired": 3904,
      "impairment": 3905,
      "clot": 3906,
      "blocks": 3907,
      "supportive": 3908,
      "maintain": 3909,
      "numbness": 3910,
      "uterus": 3911,
      "uterine": 3912,
      "breaths": 3913,
      "eosinophils": 3914,
      "lumen": 3915,
      "macro": 3916,
      "sitting": 3917,
      "reached": 3918,
      "methasone": 3919,
      "poorly": 3920,
      "liter": 3921,
      "laparotomy": 3922,
      "sulfa": 3923,
      "delivered": 3924,
      "microscopy": 3925,
      "cytoplasm": 3926,
      "nuclei": 3927,
      "splenic": 3928,
      "tured": 3929,
      "atropine": 3930,
      "mobility": 3931,
      "mobile": 3932,
      "fluores": 3933,
      "invasive": 3934,
      "immunohistochemistry": 3935,
      "occipit": 3936,
      "occipital": 3937,
      "digital": 3938,
      "differentiation": 3939,
      "differentiated": 3940,
      "lactic": 3941,
      "qtc": 3942,
      "stabilization": 3943,
      "beatsmin": 3944,
      "circumfer": 3945,
      "ltd": 3946,
      "surgeon": 3947,
      "electrolytes": 3948,
      "baby": 3949,
      "endometrial": 3950,
      "born": 3951,
      "kcn": 3952,
      "orbital": 3953,
      "retrieved": 3954,
      "disseminated": 3955,
      "hernia": 3956,
      "trachea": 3957,
      "aminotransferase": 3958,
      "ietal": 3959,
      "sequencing": 3960,
      "available": 3961,
      "electrocardiogram": 3962,
      "h2o": 3963,
      "lamp": 3964,
      "pigment": 3965,
      "sagittal": 3966,
      "walking": 3967,
      "medullary": 3968,
      "odontic": 3969,
      "introduced": 3970,
      "receptor": 3971,
      "plaque": 3972,
      "disturbance": 3973,
      "hallucinations": 3974,
      "ivers": 3975,
      "skull": 3976,
      "attention": 3977,
      "deformity": 3978,
      "scattered": 3979,
      "perineal": 3980,
      "proceed": 3981,
      "preparation": 3982,
      "interstitial": 3983,
      "manifestations": 3984,
      "schizophrenia": 3985,
      "cranio": 3986,
      "girl": 3987,
      "july": 3988,
      "uximab": 3989,
      "vdrl": 3990,
      "thrice": 3991,
      "ongoing": 3992,
      "alanine": 3993,
      "together": 3994,
      "earlier": 3995,
      "conjunct": 3996,
      "cholecyst": 3997,
      "aphasia": 3998,
      "therapeutic": 3999,
      "subscapular": 4000,
      "51": 4001,
      "89": 4002,
      "96": 4003,
      "ausc": 4004,
      "best": 4005,
      "don": 4006,
      "elo": 4007,
      "ect": 4008,
      "fren": 4009,
      "fissu": 4010,
      "fav": 4011,
      "gia": 4012,
      "gam": 4013,
      "gadol": 4014,
      "hed": 4015,
      "hes": 4016,
      "hing": 4017,
      "iod": 4018,
      "ifi": 4019,
      "kal": 4020,
      "lv": 4021,
      "lat": 4022,
      "lan": 4023,
      "lca": 4024,
      "lamin": 4025,
      "mme": 4026,
      "nut": 4027,
      "nig": 4028,
      "nons": 4029,
      "nature": 4030,
      "otic": 4031,
      "ovirus": 4032,
      "pm": 4033,
      "pod": 4034,
      "pills": 4035,
      "ppler": 4036,
      "ses": 4037,
      "spr": 4038,
      "scope": 4039,
      "v1": 4040,
      "vv": 4041,
      "void": 4042,
      "wi": 4043,
      "whe": 4044,
      "warm": 4045,
      "xia": 4046,
      "yie": 4047,
      "zen": 4048,
      "inst": 4049,
      "inte": 4050,
      "inium": 4051,
      "inner": 4052,
      "instead": 4053,
      "tharg": 4054,
      "thresh": 4055,
      "atrophic": 4056,
      "atrium": 4057,
      "alter": 4058,
      "ally": 4059,
      "already": 4060,
      "oring": 4061,
      "revascular": 4062,
      "refused": 4063,
      "itness": 4064,
      "aract": 4065,
      "arcoma": 4066,
      "arrow": 4067,
      "isci": 4068,
      "entry": 4069,
      "ican": 4070,
      "ofib": 4071,
      "ofilar": 4072,
      "tour": 4073,
      "tober": 4074,
      "coid": 4075,
      "cover": 4076,
      "urinal": 4077,
      "letharg": 4078,
      "stre": 4079,
      "unknown": 4080,
      "unusual": 4081,
      "univers": 4082,
      "acto": 4083,
      "death": 4084,
      "decompression": 4085,
      "lytic": 4086,
      "idazole": 4087,
      "idisci": 4088,
      "extraction": 4089,
      "ressing": 4090,
      "compon": 4091,
      "seminal": 4092,
      "absol": 4093,
      "plinary": 4094,
      "played": 4095,
      "igas": 4096,
      "emg": 4097,
      "emot": 4098,
      "trig": 4099,
      "chon": 4100,
      "chart": 4101,
      "percutaneous": 4102,
      "cardic": 4103,
      "uml": 4104,
      "cycline": 4105,
      "meq": 4106,
      "metron": 4107,
      "neur": 4108,
      "rican": 4109,
      "medial": 4110,
      "mole": 4111,
      "moma": 4112,
      "mouth": 4113,
      "proli": 4114,
      "production": 4115,
      "prolonged": 4116,
      "llment": 4117,
      "die": 4118,
      "dii": 4119,
      "antinuclear": 4120,
      "restoration": 4121,
      "follows": 4122,
      "pressed": 4123,
      "assisted": 4124,
      "ups": 4125,
      "uple": 4126,
      "phen": 4127,
      "iatic": 4128,
      "consulted": 4129,
      "parietal": 4130,
      "fio2": 4131,
      "caa": 4132,
      "genes": 4133,
      "comply": 4134,
      "serial": 4135,
      "amy": 4136,
      "firm": 4137,
      "poprotein": 4138,
      "normo": 4139,
      "uscular": 4140,
      "centric": 4141,
      "retention": 4142,
      "orally": 4143,
      "occlus": 4144,
      "october": 4145,
      "sensitive": 4146,
      "activity": 4147,
      "limited": 4148,
      "fove": 4149,
      "food": 4150,
      "doppler": 4151,
      "remission": 4152,
      "corne": 4153,
      "cluded": 4154,
      "cellular": 4155,
      "subcutaneous": 4156,
      "spi": 4157,
      "distrib": 4158,
      "shif": 4159,
      "extended": 4160,
      "timolol": 4161,
      "hypercholester": 4162,
      "hypercortisol": 4163,
      "hyperlipidemia": 4164,
      "intrahepatic": 4165,
      "intramedullary": 4166,
      "132": 4167,
      "eccentric": 4168,
      "protection": 4169,
      "arding": 4170,
      "histology": 4171,
      "resulting": 4172,
      "axial": 4173,
      "cardiomy": 4174,
      "infant": 4175,
      "vesicle": 4176,
      "measures": 4177,
      "avoid": 4178,
      "dysphagia": 4179,
      "multidisci": 4180,
      "linezol": 4181,
      "pleur": 4182,
      "sarcoid": 4183,
      "aneurysms": 4184,
      "olemia": 4185,
      "fractions": 4186,
      "predo": 4187,
      "aspirate": 4188,
      "cd4": 4189,
      "electroph": 4190,
      "regions": 4191,
      "capsul": 4192,
      "impacted": 4193,
      "flexion": 4194,
      "flexible": 4195,
      "thickened": 4196,
      "leads": 4197,
      "passive": 4198,
      "esthetic": 4199,
      "platelets": 4200,
      "joints": 4201,
      "particular": 4202,
      "collapse": 4203,
      "galacto": 4204,
      "macular": 4205,
      "ruptured": 4206,
      "exertion": 4207,
      "factory": 4208,
      "lded": 4209,
      "smooth": 4210,
      "vertebr": 4211,
      "sepsis": 4212,
      "narrow": 4213,
      "repaired": 4214,
      "maternal": 4215,
      "absent": 4216,
      "absence": 4217,
      "gallbladder": 4218,
      "determined": 4219,
      "intubated": 4220,
      "keratin": 4221,
      "morphic": 4222,
      "benign": 4223,
      "palli": 4224,
      "papillary": 4225,
      "seizure": 4226,
      "father": 4227,
      "nodules": 4228,
      "satisfactory": 4229,
      "ascites": 4230,
      "profile": 4231,
      "hydration": 4232,
      "correction": 4233,
      "corrected": 4234,
      "pupils": 4235,
      "bmi": 4236,
      "sweats": 4237,
      "widening": 4238,
      "secret": 4239,
      "monoclonal": 4240,
      "deposits": 4241,
      "suspicion": 4242,
      "transaminase": 4243,
      "temporary": 4244,
      "baseline": 4245,
      "tibial": 4246,
      "anaesthesia": 4247,
      "direction": 4248,
      "pneumothorax": 4249,
      "pancreatic": 4250,
      "epithelial": 4251,
      "penia": 4252,
      "ambulatory": 4253,
      "transplantation": 4254,
      "cataract": 4255,
      "frozen": 4256,
      "consolidation": 4257,
      "urethra": 4258,
      "substantial": 4259,
      "microfilar": 4260,
      "irrigation": 4261,
      "conservatively": 4262,
      "transcription": 4263,
      "bearing": 4264,
      "begin": 4265,
      "appendic": 4266,
      "occasional": 4267,
      "evacu": 4268,
      "layer": 4269,
      "enrollment": 4270,
      "illumination": 4271,
      "incidental": 4272,
      "analyzed": 4273,
      "penicillin": 4274,
      "heavy": 4275,
      "sealed": 4276,
      "prominent": 4277,
      "antimicro": 4278,
      "occipitocervical": 4279,
      "auscultation": 4280,
      "french": 4281,
      "gadolinium": 4282,
      "kalemia": 4283,
      "yielded": 4284,
      "threshold": 4285,
      "urinalysis": 4286,
      "university": 4287,
      "absolute": 4288,
      "metronidazole": 4289,
      "prolifer": 4290,
      "shifted": 4291,
      "hypercholesterolemia": 4292,
      "cardiomyopathy": 4293,
      "multidisciplinary": 4294,
      "linezolid": 4295,
      "sarcoidosis": 4296,
      "124": 4297,
      "31": 4298,
      "39": 4299,
      "41": 4300,
      "a1": 4301,
      "aver": 4302,
      "aud": 4303,
      "aund": 4304,
      "away": 4305,
      "amethasone": 4306,
      "bip": 4307,
      "c7": 4308,
      "cies": 4309,
      "db": 4310,
      "dressing": 4311,
      "euro": 4312,
      "each": 4313,
      "eeg": 4314,
      "fes": 4315,
      "fran": 4316,
      "gut": 4317,
      "glycem": 4318,
      "hands": 4319,
      "iar": 4320,
      "jaund": 4321,
      "ki": 4322,
      "kore": 4323,
      "lu": 4324,
      "lon": 4325,
      "lic": 4326,
      "laxis": 4327,
      "mi": 4328,
      "might": 4329,
      "ni": 4330,
      "ny": 4331,
      "pv": 4332,
      "pes": 4333,
      "pand": 4334,
      "pco": 4335,
      "pid": 4336,
      "rs": 4337,
      "ria": 4338,
      "rum": 4339,
      "rimal": 4340,
      "s1": 4341,
      "sas": 4342,
      "siro": 4343,
      "t3": 4344,
      "ton": 4345,
      "tle": 4346,
      "tte": 4347,
      "tility": 4348,
      "tently": 4349,
      "vf": 4350,
      "vim": 4351,
      "wb": 4352,
      "wedge": 4353,
      "witness": 4354,
      "yr": 4355,
      "zir": 4356,
      "zone": 4357,
      "zie": 4358,
      "inr": 4359,
      "iness": 4360,
      "incont": 4361,
      "inence": 4362,
      "eral": 4363,
      "onin": 4364,
      "atm": 4365,
      "atitis": 4366,
      "ena": 4367,
      "oresis": 4368,
      "ann": 4369,
      "anth": 4370,
      "refle": 4371,
      "aspart": 4372,
      "itory": 4373,
      "itonin": 4374,
      "arcu": 4375,
      "isch": 4376,
      "them": 4377,
      "uses": 4378,
      "offered": 4379,
      "ofloxacin": 4380,
      "esity": 4381,
      "escal": 4382,
      "espec": 4383,
      "topic": 4384,
      "toky": 4385,
      "rose": 4386,
      "ston": 4387,
      "stere": 4388,
      "stated": 4389,
      "staf": 4390,
      "state": 4391,
      "staphy": 4392,
      "oli": 4393,
      "ulent": 4394,
      "acy": 4395,
      "deca": 4396,
      "defibrill": 4397,
      "deemed": 4398,
      "forced": 4399,
      "loo": 4400,
      "utical": 4401,
      "expan": 4402,
      "agents": 4403,
      "rition": 4404,
      "ably": 4405,
      "ille": 4406,
      "plain": 4407,
      "contraction": 4408,
      "confused": 4409,
      "scro": 4410,
      "scho": 4411,
      "scient": 4412,
      "sciatic": 4413,
      "istence": 4414,
      "emic": 4415,
      "empty": 4416,
      "trium": 4417,
      "trime": 4418,
      "chin": 4419,
      "perfor": 4420,
      "apto": 4421,
      "apical": 4422,
      "apher": 4423,
      "neel": 4424,
      "neovascular": 4425,
      "felt": 4426,
      "feeling": 4427,
      "medium": 4428,
      "brid": 4429,
      "peep": 4430,
      "prol": 4431,
      "prothrom": 4432,
      "procalc": 4433,
      "cele": 4434,
      "ceased": 4435,
      "quant": 4436,
      "quet": 4437,
      "italy": 4438,
      "disappeared": 4439,
      "displayed": 4440,
      "gluc": 4441,
      "understanding": 4442,
      "monitored": 4443,
      "lived": 4444,
      "trex": 4445,
      "roma": 4446,
      "endoc": 4447,
      "endoscope": 4448,
      "prazole": 4449,
      "maxim": 4450,
      "fif": 4451,
      "came": 4452,
      "contact": 4453,
      "genic": 4454,
      "travel": 4455,
      "serologies": 4456,
      "interpre": 4457,
      "continue": 4458,
      "hemorrhagic": 4459,
      "hemodynamic": 4460,
      "commenced": 4461,
      "oxazole": 4462,
      "intracanal": 4463,
      "limus": 4464,
      "ochem": 4465,
      "ocaine": 4466,
      "2012": 4467,
      "culosis": 4468,
      "estion": 4469,
      "106": 4470,
      "108": 4471,
      "manu": 4472,
      "tachycardic": 4473,
      "iop": 4474,
      "dexamethasone": 4475,
      "nephrectomy": 4476,
      "obliter": 4477,
      "obesity": 4478,
      "aller": 4479,
      "rise": 4480,
      "stra": 4481,
      "strate": 4482,
      "certain": 4483,
      "painless": 4484,
      "achieve": 4485,
      "bodies": 4486,
      "redness": 4487,
      "eping": 4488,
      "epigas": 4489,
      "indle": 4490,
      "overall": 4491,
      "subsided": 4492,
      "drin": 4493,
      "aka": 4494,
      "ileum": 4495,
      "spindle": 4496,
      "biliary": 4497,
      "arean": 4498,
      "graf": 4499,
      "metaphy": 4500,
      "omatous": 4501,
      "artan": 4502,
      "ubic": 4503,
      "intravitre": 4504,
      "intraocular": 4505,
      "highly": 4506,
      "ulcers": 4507,
      "neurosurgical": 4508,
      "145": 4509,
      "300": 4510,
      "pdgfr": 4511,
      "speech": 4512,
      "aceutical": 4513,
      "patent": 4514,
      "referral": 4515,
      "berg": 4516,
      "group": 4517,
      "plasm": 4518,
      "setting": 4519,
      "cardio": 4520,
      "sedation": 4521,
      "hypot": 4522,
      "hypoxia": 4523,
      "hypokalemia": 4524,
      "myelo": 4525,
      "special": 4526,
      "specif": 4527,
      "blind": 4528,
      "black": 4529,
      "cytome": 4530,
      "cytokeratin": 4531,
      "sternal": 4532,
      "multi": 4533,
      "fevers": 4534,
      "thoprim": 4535,
      "guide": 4536,
      "sarcoma": 4537,
      "crohns": 4538,
      "hematuria": 4539,
      "bronchi": 4540,
      "bronchitis": 4541,
      "glob": 4542,
      "global": 4543,
      "glomer": 4544,
      "defective": 4545,
      "hypertensive": 4546,
      "involved": 4547,
      "possib": 4548,
      "enhancing": 4549,
      "catheterization": 4550,
      "omeprazole": 4551,
      "hepato": 4552,
      "hepatomegaly": 4553,
      "radiologist": 4554,
      "thought": 4555,
      "rectum": 4556,
      "freely": 4557,
      "meters": 4558,
      "lymphocyte": 4559,
      "impairing": 4560,
      "impairments": 4561,
      "bulbar": 4562,
      "parameters": 4563,
      "purulent": 4564,
      "membran": 4565,
      "saliv": 4566,
      "steroidal": 4567,
      "organized": 4568,
      "particip": 4569,
      "eosinophilia": 4570,
      "cortex": 4571,
      "matous": 4572,
      "raised": 4573,
      "diameters": 4574,
      "sites": 4575,
      "smoker": 4576,
      "methoxazole": 4577,
      "biochem": 4578,
      "broad": 4579,
      "angioplasty": 4580,
      "combined": 4581,
      "positivity": 4582,
      "embolisation": 4583,
      "gallstone": 4584,
      "acetam": 4585,
      "determine": 4586,
      "echocardiogram": 4587,
      "leukocytosis": 4588,
      "wave": 4589,
      "stagmus": 4590,
      "seeking": 4591,
      "lipid": 4592,
      "benef": 4593,
      "deficits": 4594,
      "difficulties": 4595,
      "mixture": 4596,
      "leakage": 4597,
      "nodal": 4598,
      "photocoagulation": 4599,
      "biceps": 4600,
      "lacrimal": 4601,
      "allowed": 4602,
      "duodenal": 4603,
      "discussion": 4604,
      "ivalent": 4605,
      "lingual": 4606,
      "electrolyte": 4607,
      "doses": 4608,
      "recto": 4609,
      "relevant": 4610,
      "homozygous": 4611,
      "suspicious": 4612,
      "epilepsy": 4613,
      "epileptic": 4614,
      "detailed": 4615,
      "choroidal": 4616,
      "guiding": 4617,
      "guidance": 4618,
      "tuberculosis": 4619,
      "switched": 4620,
      "corticosteroids": 4621,
      "empirical": 4622,
      "equivalent": 4623,
      "gondii": 4624,
      "sutures": 4625,
      "levofloxacin": 4626,
      "comprised": 4627,
      "constipation": 4628,
      "periosteal": 4629,
      "ebv": 4630,
      "lidocaine": 4631,
      "social": 4632,
      "orifice": 4633,
      "anxiety": 4634,
      "anatom": 4635,
      "compromise": 4636,
      "mechanical": 4637,
      "maxillary": 4638,
      "esophagus": 4639,
      "amplitude": 4640,
      "diverticulitis": 4641,
      "definitive": 4642,
      "evolution": 4643,
      "attending": 4644,
      "clavic": 4645,
      "carboplatin": 4646,
      "prophylaxis": 4647,
      "samples": 4648,
      "calculus": 4649,
      "opacities": 4650,
      "velocity": 4651,
      "ovarian": 4652,
      "extracted": 4653,
      "pharmaceutical": 4654,
      "sulfamethoxazole": 4655,
      "conjunctival": 4656,
      "subscapularis": 4657,
      "ifies": 4658,
      "nutrition": 4659,
      "wheez": 4660,
      "arrows": 4661,
      "emotional": 4662,
      "molecular": 4663,
      "spike": 4664,
      "hypercortisolism": 4665,
      "electrophoresis": 4666,
      "galactose": 4667,
      "palliative": 4668,
      "antimicrobial": 4669,
      "auditory": 4670,
      "nystagmus": 4671,
      "pco2": 4672,
      "sasd": 4673,
      "sirolimus": 4674,
      "ziehl": 4675,
      "incontinence": 4676,
      "aspartate": 4677,
      "arcuate": 4678,
      "especially": 4679,
      "tokyo": 4680,
      "staff": 4681,
      "staphylo": 4682,
      "decade": 4683,
      "school": 4684,
      "scientific": 4685,
      "trimethoprim": 4686,
      "apheresis": 4687,
      "neelsen": 4688,
      "prothrombin": 4689,
      "procalcitonin": 4690,
      "glucagon": 4691,
      "maximum": 4692,
      "metaphysis": 4693,
      "03": 4694,
      "115": 4695,
      "112": 4696,
      "218": 4697,
      "275": 4698,
      "375": 4699,
      "91": 4700,
      "93": 4701,
      "98": 4702,
      "ao": 4703,
      "amon": 4704,
      "ake": 4705,
      "aure": 4706,
      "aise": 4707,
      "afebrile": 4708,
      "b8": 4709,
      "bound": 4710,
      "basis": 4711,
      "chemor": 4712,
      "dor": 4713,
      "date": 4714,
      "dsa": 4715,
      "ff": 4716,
      "fit": 4717,
      "fasc": 4718,
      "gast": 4719,
      "gies": 4720,
      "hu": 4721,
      "hin": 4722,
      "hus": 4723,
      "hicle": 4724,
      "hcg": 4725,
      "huge": 4726,
      "hpv": 4727,
      "ij": 4728,
      "iated": 4729,
      "jection": 4730,
      "land": 4731,
      "lberg": 4732,
      "nd": 4733,
      "nam": 4734,
      "nail": 4735,
      "nwb": 4736,
      "ost": 4737,
      "omal": 4738,
      "oval": 4739,
      "oposterior": 4740,
      "outer": 4741,
      "pac": 4742,
      "pub": 4743,
      "pcp": 4744,
      "rated": 4745,
      "rare": 4746,
      "raz": 4747,
      "sv": 4748,
      "san": 4749,
      "sst": 4750,
      "sides": 4751,
      "tn": 4752,
      "tir": 4753,
      "tip": 4754,
      "tax": 4755,
      "tpm": 4756,
      "v2": 4757,
      "vable": 4758,
      "vular": 4759,
      "vinc": 4760,
      "war": 4761,
      "will": 4762,
      "xone": 4763,
      "yond": 4764,
      "µl": 4765,
      "inpatient": 4766,
      "inhal": 4767,
      "erion": 4768,
      "eros": 4769,
      "thre": 4770,
      "atten": 4771,
      "enem": 4772,
      "alb": 4773,
      "altern": 4774,
      "algic": 4775,
      "orex": 4776,
      "orbid": 4777,
      "anca": 4778,
      "ances": 4779,
      "anesthetic": 4780,
      "anorex": 4781,
      "edges": 4782,
      "recr": 4783,
      "refract": 4784,
      "aspin": 4785,
      "itic": 4786,
      "itud": 4787,
      "itating": 4788,
      "ardi": 4789,
      "arising": 4790,
      "isk": 4791,
      "iso": 4792,
      "ison": 4793,
      "icy": 4794,
      "toes": 4795,
      "toprotein": 4796,
      "iabp": 4797,
      "coc": 4798,
      "coil": 4799,
      "covered": 4800,
      "ingly": 4801,
      "leuco": 4802,
      "unk": 4803,
      "unstable": 4804,
      "unconsciousness": 4805,
      "heim": 4806,
      "heide": 4807,
      "acaine": 4808,
      "defe": 4809,
      "declin": 4810,
      "vehicle": 4811,
      "foram": 4812,
      "loop": 4813,
      "lopia": 4814,
      "expiratory": 4815,
      "expression": 4816,
      "expand": 4817,
      "vertical": 4818,
      "agg": 4819,
      "resumed": 4820,
      "irrit": 4821,
      "irium": 4822,
      "began": 4823,
      "bellar": 4824,
      "bevac": 4825,
      "beyond": 4826,
      "rituximab": 4827,
      "abg": 4828,
      "abuse": 4829,
      "plane": 4830,
      "plite": 4831,
      "play": 4832,
      "hyster": 4833,
      "hystere": 4834,
      "scn": 4835,
      "critical": 4836,
      "criterion": 4837,
      "istal": 4838,
      "trim": 4839,
      "chose": 4840,
      "chills": 4841,
      "perac": 4842,
      "perman": 4843,
      "perime": 4844,
      "peristal": 4845,
      "carved": 4846,
      "imens": 4847,
      "impression": 4848,
      "ereal": 4849,
      "aps": 4850,
      "apsed": 4851,
      "sured": 4852,
      "rick": 4853,
      "rict": 4854,
      "feed": 4855,
      "fected": 4856,
      "fetoprotein": 4857,
      "medially": 4858,
      "brac": 4859,
      "brach": 4860,
      "pection": 4861,
      "peak": 4862,
      "affected": 4863,
      "program": 4864,
      "question": 4865,
      "atezol": 4866,
      "disqual": 4867,
      "malaise": 4868,
      "antalgic": 4869,
      "lium": 4870,
      "living": 4871,
      "foll": 4872,
      "ficient": 4873,
      "followup": 4874,
      "illed": 4875,
      "morning": 4876,
      "180": 4877,
      "prepared": 4878,
      "valvular": 4879,
      "assay": 4880,
      "assistance": 4881,
      "what": 4882,
      "symme": 4883,
      "kel": 4884,
      "keto": 4885,
      "vian": 4886,
      "pril": 4887,
      "prine": 4888,
      "izing": 4889,
      "izations": 4890,
      "insic": 4891,
      "inspection": 4892,
      "ventricul": 4893,
      "static": 4894,
      "stature": 4895,
      "genomic": 4896,
      "travo": 4897,
      "urethro": 4898,
      "serology": 4899,
      "lessness": 4900,
      "interrup": 4901,
      "intervertebral": 4902,
      "poplite": 4903,
      "quality": 4904,
      "tracheal": 4905,
      "centesis": 4906,
      "continuing": 4907,
      "depth": 4908,
      "depicted": 4909,
      "susp": 4910,
      "suspect": 4911,
      "revealing": 4912,
      "maleate": 4913,
      "posed": 4914,
      "oxide": 4915,
      "hemis": 4916,
      "parts": 4917,
      "responded": 4918,
      "functions": 4919,
      "kinase": 4920,
      "101": 4921,
      "surgically": 4922,
      "manage": 4923,
      "manip": 4924,
      "actam": 4925,
      "tachypne": 4926,
      "ioprine": 4927,
      "rapd": 4928,
      "know": 4929,
      "centered": 4930,
      "dextro": 4931,
      "cerebellar": 4932,
      "obt": 4933,
      "object": 4934,
      "obactam": 4935,
      "hypoglycemia": 4936,
      "painful": 4937,
      "cmv": 4938,
      "radiating": 4939,
      "ivacaine": 4940,
      "overlying": 4941,
      "intake": 4942,
      "idement": 4943,
      "opn": 4944,
      "optim": 4945,
      "opened": 4946,
      "opacity": 4947,
      "subdural": 4948,
      "transition": 4949,
      "incis": 4950,
      "cold": 4951,
      "copd": 4952,
      "cessive": 4953,
      "neuropathy": 4954,
      "neurologic": 4955,
      "142": 4956,
      "venereal": 4957,
      "pathologist": 4958,
      "volt": 4959,
      "thymoma": 4960,
      "appen": 4961,
      "cellsmm3": 4962,
      "ectopic": 4963,
      "tember": 4964,
      "azath": 4965,
      "azobactam": 4966,
      "patch": 4967,
      "patchy": 4968,
      "histopathologic": 4969,
      "counts": 4970,
      "furcation": 4971,
      "antiplatelet": 4972,
      "analges": 4973,
      "identify": 4974,
      "dense": 4975,
      "hypochlor": 4976,
      "primer": 4977,
      "failed": 4978,
      "microperime": 4979,
      "specimens": 4980,
      "demonstrate": 4981,
      "blas": 4982,
      "blur": 4983,
      "sterno": 4984,
      "systems": 4985,
      "gestation": 4986,
      "enough": 4987,
      "posteriorly": 4988,
      "immune": 4989,
      "cross": 4990,
      "hans": 4991,
      "supine": 4992,
      "moreover": 4993,
      "throat": 4994,
      "midazolam": 4995,
      "marks": 4996,
      "walls": 4997,
      "fractured": 4998,
      "predicted": 4999,
      "gastroscopy": 5000,
      "longitud": 5001,
      "geneous": 5002,
      "visualized": 5003,
      "cd5": 5004,
      "cd8": 5005,
      "mesh": 5006,
      "regional": 5007,
      "fibula": 5008,
      "picu": 5009,
      "solitary": 5010,
      "against": 5011,
      "infiltrate": 5012,
      "polyps": 5013,
      "lymphoid": 5014,
      "lymphoma": 5015,
      "different": 5016,
      "clovir": 5017,
      "variable": 5018,
      "intestine": 5019,
      "ligament": 5020,
      "adjust": 5021,
      "haemody": 5022,
      "immunodeficiency": 5023,
      "memory": 5024,
      "toxo": 5025,
      "colored": 5026,
      "abscessus": 5027,
      "breathing": 5028,
      "roots": 5029,
      "rays": 5030,
      "delayed": 5031,
      "delirium": 5032,
      "moderately": 5033,
      "nuclear": 5034,
      "exercis": 5035,
      "closure": 5036,
      "method": 5037,
      "bifurcation": 5038,
      "meropen": 5039,
      "investigation": 5040,
      "dimer": 5041,
      "giant": 5042,
      "inguish": 5043,
      "humeral": 5044,
      "vitals": 5045,
      "exploration": 5046,
      "september": 5047,
      "autopsy": 5048,
      "jective": 5049,
      "jejun": 5050,
      "reviewed": 5051,
      "absor": 5052,
      "fibrous": 5053,
      "fibrosis": 5054,
      "embolization": 5055,
      "ischemia": 5056,
      "enalapril": 5057,
      "lobes": 5058,
      "collected": 5059,
      "satisfied": 5060,
      "granular": 5061,
      "neoplastic": 5062,
      "directly": 5063,
      "aaa": 5064,
      "ristine": 5065,
      "stabilized": 5066,
      "implantation": 5067,
      "means": 5068,
      "supraspin": 5069,
      "discussed": 5070,
      "diplopia": 5071,
      "differentials": 5072,
      "dosage": 5073,
      "width": 5074,
      "thighs": 5075,
      "arthritis": 5076,
      "deteriorated": 5077,
      "homogeneous": 5078,
      "transaminases": 5079,
      "haemorrhage": 5080,
      "tibia": 5081,
      "dermatological": 5082,
      "corticosteroid": 5083,
      "epithelium": 5084,
      "film": 5085,
      "sessions": 5086,
      "titer": 5087,
      "ynthesis": 5088,
      "exposure": 5089,
      "osteosarcoma": 5090,
      "osteosynthesis": 5091,
      "degenerative": 5092,
      "relieve": 5093,
      "pitu": 5094,
      "arranged": 5095,
      "minantly": 5096,
      "triaxone": 5097,
      "preservation": 5098,
      "towards": 5099,
      "degree": 5100,
      "parenchymal": 5101,
      "requirement": 5102,
      "distinct": 5103,
      "duodenum": 5104,
      "rheumatoid": 5105,
      "easily": 5106,
      "fnac": 5107,
      "nsaids": 5108,
      "piperac": 5109,
      "instrum": 5110,
      "onuclear": 5111,
      "debridement": 5112,
      "protrud": 5113,
      "productive": 5114,
      "ceftriaxone": 5115,
      "susceptibility": 5116,
      "craniotomy": 5117,
      "donor": 5118,
      "wife": 5119,
      "instability": 5120,
      "alterations": 5121,
      "revascularization": 5122,
      "meql": 5123,
      "fovea": 5124,
      "predominantly": 5125,
      "vertebrae": 5126,
      "narrowing": 5127,
      "beginning": 5128,
      "appendicitis": 5129,
      "proliferation": 5130,
      "average": 5131,
      "korea": 5132,
      "witnessed": 5133,
      "acyclovir": 5134,
      "defibrillator": 5135,
      "expansion": 5136,
      "endocr": 5137,
      "manubr": 5138,
      "straight": 5139,
      "pdgfrb": 5140,
      "specifically": 5141,
      "salivary": 5142,
      "participating": 5143,
      "biochemical": 5144,
      "anatomical": 5145,
      "staphylococcus": 5146,
      "among": 5147,
      "aureus": 5148,
      "chemorad": 5149,
      "vincristine": 5150,
      "attenu": 5151,
      "anorexia": 5152,
      "refractory": 5153,
      "heidelberg": 5154,
      "defecation": 5155,
      "declined": 5156,
      "foramen": 5157,
      "bevacizumab": 5158,
      "hysterectomy": 5159,
      "permanent": 5160,
      "atezolizumab": 5161,
      "disqualifies": 5162,
      "travoprost": 5163,
      "interrupted": 5164,
      "popliteal": 5165,
      "dextrose": 5166,
      "azathioprine": 5167,
      "microperimetry": 5168,
      "longitudinal": 5169,
      "meropenem": 5170,
      "supraspinatus": 5171,
      "01": 5172,
      "04": 5173,
      "06": 5174,
      "119": 5175,
      "175": 5176,
      "117": 5177,
      "270": 5178,
      "3r": 5179,
      "4th": 5180,
      "87": 5181,
      "ather": 5182,
      "awa": 5183,
      "aware": 5184,
      "cil": 5185,
      "cated": 5186,
      "dct": 5187,
      "dual": 5188,
      "dox": 5189,
      "eu": 5190,
      "een": 5191,
      "fv": 5192,
      "foc": 5193,
      "ging": 5194,
      "gem": 5195,
      "gain": 5196,
      "gement": 5197,
      "get": 5198,
      "gaz": 5199,
      "hr": 5200,
      "har": 5201,
      "hab": 5202,
      "hence": 5203,
      "hensive": 5204,
      "hcv": 5205,
      "jug": 5206,
      "just": 5207,
      "kins": 5208,
      "l3": 5209,
      "lc": 5210,
      "lump": 5211,
      "lav": 5212,
      "m0": 5213,
      "mig": 5214,
      "mma": 5215,
      "mitted": 5216,
      "mural": 5217,
      "mature": 5218,
      "mucin": 5219,
      "much": 5220,
      "nc": 5221,
      "ocrit": 5222,
      "oment": 5223,
      "ocyte": 5224,
      "oedema": 5225,
      "oembry": 5226,
      "omorphic": 5227,
      "pn": 5228,
      "pof": 5229,
      "ping": 5230,
      "pol": 5231,
      "put": 5232,
      "peria": 5233,
      "psa": 5234,
      "psin": 5235,
      "pene": 5236,
      "rand": 5237,
      "rig": 5238,
      "rho": 5239,
      "raine": 5240,
      "sib": 5241,
      "siz": 5242,
      "siven": 5243,
      "spo2": 5244,
      "t4": 5245,
      "tan": 5246,
      "tig": 5247,
      "tens": 5248,
      "tons": 5249,
      "tong": 5250,
      "tazobactam": 5251,
      "urom": 5252,
      "vous": 5253,
      "vary": 5254,
      "vsd": 5255,
      "wan": 5256,
      "ytic": 5257,
      "zo": 5258,
      "zz": 5259,
      "μg": 5260,
      "μl": 5261,
      "inous": 5262,
      "influ": 5263,
      "invit": 5264,
      "induction": 5265,
      "intron": 5266,
      "erican": 5267,
      "thr": 5268,
      "atal": 5269,
      "atening": 5270,
      "atoma": 5271,
      "attemp": 5272,
      "enz": 5273,
      "ense": 5274,
      "enoid": 5275,
      "envo": 5276,
      "alve": 5277,
      "alive": 5278,
      "ories": 5279,
      "ortho": 5280,
      "orenal": 5281,
      "orubic": 5282,
      "anosis": 5283,
      "ancies": 5284,
      "edded": 5285,
      "asthen": 5286,
      "itry": 5287,
      "aries": 5288,
      "arthro": 5289,
      "ioned": 5290,
      "ionom": 5291,
      "icit": 5292,
      "thetic": 5293,
      "thelial": 5294,
      "usage": 5295,
      "esomeprazole": 5296,
      "tock": 5297,
      "tobac": 5298,
      "andial": 5299,
      "rosis": 5300,
      "rods": 5301,
      "cog": 5302,
      "cox": 5303,
      "coils": 5304,
      "coding": 5305,
      "leve": 5306,
      "stroma": 5307,
      "unwitnessed": 5308,
      "olus": 5309,
      "acil": 5310,
      "acqu": 5311,
      "teric": 5312,
      "teratoma": 5313,
      "osen": 5314,
      "dement": 5315,
      "veill": 5316,
      "forear": 5317,
      "lot": 5318,
      "lodip": 5319,
      "adhere": 5320,
      "adotro": 5321,
      "adhes": 5322,
      "ctal": 5323,
      "cting": 5324,
      "exin": 5325,
      "excav": 5326,
      "expect": 5327,
      "version": 5328,
      "agul": 5329,
      "resist": 5330,
      "resem": 5331,
      "resistance": 5332,
      "comorbid": 5333,
      "beha": 5334,
      "beij": 5335,
      "abb": 5336,
      "ilol": 5337,
      "illo": 5338,
      "plus": 5339,
      "conium": 5340,
      "congested": 5341,
      "concluded": 5342,
      "mini": 5343,
      "hyoid": 5344,
      "hybrid": 5345,
      "emesis": 5346,
      "trunk": 5347,
      "chall": 5348,
      "chosen": 5349,
      "imatin": 5350,
      "imately": 5351,
      "imental": 5352,
      "immobil": 5353,
      "apex": 5354,
      "apparent": 5355,
      "cyanosis": 5356,
      "surveill": 5357,
      "metho": 5358,
      "neither": 5359,
      "neurom": 5360,
      "suic": 5361,
      "hospice": 5362,
      "fev1": 5363,
      "mod": 5364,
      "move": 5365,
      "bru": 5366,
      "petech": 5367,
      "afb": 5368,
      "african": 5369,
      "pros": 5370,
      "proper": 5371,
      "product": 5372,
      "propof": 5373,
      "cein": 5374,
      "displaced": 5375,
      "hospitals": 5376,
      "glut": 5377,
      "dizz": 5378,
      "underage": 5379,
      "understand": 5380,
      "antine": 5381,
      "antitry": 5382,
      "lipoprotein": 5383,
      "restarted": 5384,
      "tremor": 5385,
      "illa": 5386,
      "outcome": 5387,
      "tyl": 5388,
      "preced": 5389,
      "premolar": 5390,
      "notice": 5391,
      "syl": 5392,
      "keeping": 5393,
      "pheno": 5394,
      "endole": 5395,
      "endodontic": 5396,
      "ponin": 5397,
      "pron": 5398,
      "prandial": 5399,
      "consult": 5400,
      "paras": 5401,
      "pares": 5402,
      "caud": 5403,
      "severity": 5404,
      "genous": 5405,
      "compos": 5406,
      "severely": 5407,
      "amyl": 5408,
      "american": 5409,
      "amlodip": 5410,
      "interest": 5411,
      "interaction": 5412,
      "logous": 5413,
      "trace": 5414,
      "normalization": 5415,
      "barri": 5416,
      "fungal": 5417,
      "retain": 5418,
      "amine": 5419,
      "injuries": 5420,
      "balance": 5421,
      "responding": 5422,
      "tenance": 5423,
      "planted": 5424,
      "208": 5425,
      "2019": 5426,
      "2011": 5427,
      "estrogen": 5428,
      "udes": 5429,
      "mgd": 5430,
      "medicament": 5431,
      "240": 5432,
      "mann": 5433,
      "remove": 5434,
      "circu": 5435,
      "otor": 5436,
      "ipsil": 5437,
      "chromium": 5438,
      "spontaneously": 5439,
      "doct": 5440,
      "grew": 5441,
      "great": 5442,
      "cerebro": 5443,
      "hydrocephal": 5444,
      "strain": 5445,
      "gerhans": 5446,
      "aches": 5447,
      "risks": 5448,
      "boston": 5449,
      "ultimately": 5450,
      "buttock": 5451,
      "somal": 5452,
      "angu": 5453,
      "angina": 5454,
      "cordis": 5455,
      "coronal": 5456,
      "epider": 5457,
      "curved": 5458,
      "negated": 5459,
      "ivc": 5460,
      "forehead": 5461,
      "postsurgery": 5462,
      "postprandial": 5463,
      "overt": 5464,
      "intens": 5465,
      "calib": 5466,
      "151": 5467,
      "subjected": 5468,
      "subjective": 5469,
      "transient": 5470,
      "ck7": 5471,
      "draining": 5472,
      "colic": 5473,
      "colum": 5474,
      "copal": 5475,
      "ileal": 5476,
      "ileus": 5477,
      "distinguish": 5478,
      "extens": 5479,
      "crvo": 5480,
      "127": 5481,
      "128": 5482,
      "physis": 5483,
      "complement": 5484,
      "completing": 5485,
      "experiencing": 5486,
      "desmin": 5487,
      "vasos": 5488,
      "intravascular": 5489,
      "intramuscular": 5490,
      "neurologist": 5491,
      "neurovascular": 5492,
      "144": 5493,
      "149": 5494,
      "dectomy": 5495,
      "volvul": 5496,
      "256": 5497,
      "pdt": 5498,
      "thyl": 5499,
      "nervous": 5500,
      "clearly": 5501,
      "aceous": 5502,
      "median": 5503,
      "operatively": 5504,
      "161": 5505,
      "headaches": 5506,
      "006": 5507,
      "antihypertensive": 5508,
      "operate": 5509,
      "appearing": 5510,
      "procedural": 5511,
      "lymphaden": 5512,
      "mycin": 5513,
      "myel": 5514,
      "blast": 5515,
      "cytological": 5516,
      "gestational": 5517,
      "immature": 5518,
      "complication": 5519,
      "hgb": 5520,
      "mitotic": 5521,
      "plex": 5522,
      "pleomorphic": 5523,
      "association": 5524,
      "shortly": 5525,
      "hematological": 5526,
      "audi": 5527,
      "ollen": 5528,
      "calcification": 5529,
      "ews": 5530,
      "carcinoid": 5531,
      "carcinoembry": 5532,
      "marker": 5533,
      "psor": 5534,
      "28th": 5535,
      "gastrostomy": 5536,
      "cd3": 5537,
      "iff": 5538,
      "ishing": 5539,
      "fiber": 5540,
      "periphery": 5541,
      "echogenic": 5542,
      "fixator": 5543,
      "entered": 5544,
      "polymorph": 5545,
      "screen": 5546,
      "lymphocytic": 5547,
      "positioning": 5548,
      "rophages": 5549,
      "blockers": 5550,
      "inferiorly": 5551,
      "bulb": 5552,
      "himself": 5553,
      "maintenance": 5554,
      "purple": 5555,
      "children": 5556,
      "corona": 5557,
      "organism": 5558,
      "reads": 5559,
      "occup": 5560,
      "periodon": 5561,
      "dye": 5562,
      "delay": 5563,
      "fields": 5564,
      "arrived": 5565,
      "galovirus": 5566,
      "macrophages": 5567,
      "reactions": 5568,
      "segmental": 5569,
      "mucosal": 5570,
      "echoic": 5571,
      "biological": 5572,
      "lasted": 5573,
      "ciprof": 5574,
      "little": 5575,
      "swab": 5576,
      "swollen": 5577,
      "orientation": 5578,
      "embedded": 5579,
      "angiotens": 5580,
      "troponin": 5581,
      "administrated": 5582,
      "marginal": 5583,
      "sacral": 5584,
      "igg4": 5585,
      "retrograde": 5586,
      "recommend": 5587,
      "explored": 5588,
      "autologous": 5589,
      "ventilated": 5590,
      "fibrotic": 5591,
      "embolism": 5592,
      "gallstones": 5593,
      "acetazolam": 5594,
      "determination": 5595,
      "comfortable": 5596,
      "performance": 5597,
      "splen": 5598,
      "fluoroscopy": 5599,
      "stains": 5600,
      "identification": 5601,
      "preoperatively": 5602,
      "signals": 5603,
      "downward": 5604,
      "egd": 5605,
      "fronto": 5606,
      "enzyme": 5607,
      "effects": 5608,
      "concentrations": 5609,
      "implantable": 5610,
      "circumflex": 5611,
      "000218": 5612,
      "alkalosis": 5613,
      "orthopedic": 5614,
      "pupillary": 5615,
      "silver": 5616,
      "cephalexin": 5617,
      "surgeons": 5618,
      "hydroxy": 5619,
      "ophthalmologist": 5620,
      "missing": 5621,
      "rashes": 5622,
      "ttage": 5623,
      "deterioration": 5624,
      "spectrum": 5625,
      "temporarily": 5626,
      "haemorrhagic": 5627,
      "communicating": 5628,
      "pseudoaneurysm": 5629,
      "eighteen": 5630,
      "kcne": 5631,
      "meeting": 5632,
      "directed": 5633,
      "undergoing": 5634,
      "mgkgday": 5635,
      "stools": 5636,
      "pancreatitis": 5637,
      "haematological": 5638,
      "cpk": 5639,
      "nm000218": 5640,
      "sleep": 5641,
      "session": 5642,
      "titrated": 5643,
      "equip": 5644,
      "gonadotro": 5645,
      "iformis": 5646,
      "oncology": 5647,
      "anteroposterior": 5648,
      "degenerated": 5649,
      "adenoma": 5650,
      "comprising": 5651,
      "necessitated": 5652,
      "endobronchial": 5653,
      "tolerated": 5654,
      "dimensional": 5655,
      "relieved": 5656,
      "intral": 5657,
      "atypical": 5658,
      "atypia": 5659,
      "arrangement": 5660,
      "separate": 5661,
      "erythema": 5662,
      "erythematous": 5663,
      "characteristics": 5664,
      "nickel": 5665,
      "slides": 5666,
      "prompt": 5667,
      "histiocytosis": 5668,
      "paralysis": 5669,
      "etiology": 5670,
      "etiologies": 5671,
      "curettage": 5672,
      "called": 5673,
      "farin": 5674,
      "packed": 5675,
      "spreading": 5676,
      "aggravated": 5677,
      "connected": 5678,
      "measurement": 5679,
      "breathsmin": 5680,
      "fluorescein": 5681,
      "circumference": 5682,
      "cholecystectomy": 5683,
      "fissure": 5684,
      "latter": 5685,
      "langerhans": 5686,
      "tourni": 5687,
      "component": 5688,
      "neurofib": 5689,
      "amyloid": 5690,
      "occlusal": 5691,
      "distribution": 5692,
      "pleura": 5693,
      "particularly": 5694,
      "microfilaria": 5695,
      "europe": 5696,
      "jaundice": 5697,
      "longer": 5698,
      "ischa": 5699,
      "scrotal": 5700,
      "chinese": 5701,
      "perforation": 5702,
      "prolol": 5703,
      "trexate": 5704,
      "drinking": 5705,
      "intravitreal": 5706,
      "blindness": 5707,
      "cytomegalovirus": 5708,
      "possibly": 5709,
      "membranous": 5710,
      "wheezing": 5711,
      "namically": 5712,
      "tiracetam": 5713,
      "warfarin": 5714,
      "erosion": 5715,
      "threatening": 5716,
      "recru": 5717,
      "hysteroscopic": 5718,
      "carvedilol": 5719,
      "feeds": 5720,
      "ketoacidosis": 5721,
      "urethrostomy": 5722,
      "manipulation": 5723,
      "knowled": 5724,
      "transitioned": 5725,
      "appendectomy": 5726,
      "hypochlorite": 5727,
      "blastoma": 5728,
      "toxoplasma": 5729,
      "pituitary": 5730,
      "piperacillin": 5731,
      "endocrine": 5732,
      "manubrium": 5733,
      "3rd": 5734,
      "doxorubic": 5735,
      "migraine": 5736,
      "policy": 5737,
      "penetr": 5738,
      "random": 5739,
      "sibling": 5740,
      "sizes": 5741,
      "siveness": 5742,
      "tongue": 5743,
      "attempted": 5744,
      "envoy": 5745,
      "asthenia": 5746,
      "ionomer": 5747,
      "tobacco": 5748,
      "levetiracetam": 5749,
      "dementia": 5750,
      "behavi": 5751,
      "beijing": 5752,
      "hybridization": 5753,
      "imatinib": 5754,
      "surveillance": 5755,
      "methotrexate": 5756,
      "petechiae": 5757,
      "propofol": 5758,
      "dizziness": 5759,
      "antitrypsin": 5760,
      "endoleak": 5761,
      "amlodipine": 5762,
      "interestingly": 5763,
      "circuit": 5764,
      "ipsilateral": 5765,
      "hydrocephalus": 5766,
      "volvulus": 5767,
      "carcinoembryonic": 5768,
      "ciprofloxacin": 5769,
      "angiotensin": 5770,
      "acetazolamide": 5771,
      "gonadotropin": 5772,
      "tourniquet": 5773,
      "1a": 5774,
      "140": 5775,
      "114": 5776,
      "2c": 5777,
      "230": 5778,
      "268": 5779,
      "360": 5780,
      "350": 5781,
      "380": 5782,
      "450": 5783,
      "5a": 5784,
      "6f": 5785,
      "7th": 5786,
      "86": 5787,
      "8del": 5788,
      "aid": 5789,
      "amal": 5790,
      "b6": 5791,
      "bb": 5792,
      "bud": 5793,
      "bones": 5794,
      "c2": 5795,
      "cb": 5796,
      "cas": 5797,
      "cag": 5798,
      "cme": 5799,
      "csa": 5800,
      "civ": 5801,
      "dre": 5802,
      "dent": 5803,
      "distent": 5804,
      "dull": 5805,
      "eus": 5806,
      "eto": 5807,
      "eia": 5808,
      "ecycline": 5809,
      "fal": 5810,
      "fate": 5811,
      "f50": 5812,
      "fish": 5813,
      "fresh": 5814,
      "gh": 5815,
      "graphy": 5816,
      "graph": 5817,
      "gradi": 5818,
      "hz": 5819,
      "hpf": 5820,
      "hapto": 5821,
      "hsv": 5822,
      "ius": 5823,
      "iia": 5824,
      "iation": 5825,
      "ibe": 5826,
      "iang": 5827,
      "kd": 5828,
      "kon": 5829,
      "ken": 5830,
      "lis": 5831,
      "lle": 5832,
      "lup": 5833,
      "lft": 5834,
      "lminute": 5835,
      "mn": 5836,
      "mt": 5837,
      "mast": 5838,
      "mcin": 5839,
      "mcv": 5840,
      "mups": 5841,
      "nurs": 5842,
      "nip": 5843,
      "nose": 5844,
      "otype": 5845,
      "ough": 5846,
      "ova": 5847,
      "ocytes": 5848,
      "ovary": 5849,
      "pher": 5850,
      "pca": 5851,
      "pound": 5852,
      "pically": 5853,
      "p97": 5854,
      "puscular": 5855,
      "qd": 5856,
      "rf": 5857,
      "raft": 5858,
      "rns": 5859,
      "rules": 5860,
      "sn": 5861,
      "son": 5862,
      "sor": 5863,
      "sati": 5864,
      "sant": 5865,
      "ske": 5866,
      "t8": 5867,
      "tm": 5868,
      "tive": 5869,
      "tone": 5870,
      "till": 5871,
      "tine": 5872,
      "twent": 5873,
      "twel": 5874,
      "tiary": 5875,
      "tnm": 5876,
      "tidal": 5877,
      "vm": 5878,
      "vig": 5879,
      "vocal": 5880,
      "wr": 5881,
      "wat": 5882,
      "wear": 5883,
      "whos": 5884,
      "water": 5885,
      "wide": 5886,
      "yel": 5887,
      "yography": 5888,
      "zheim": 5889,
      "µv": 5890,
      "inion": 5891,
      "inated": 5892,
      "inization": 5893,
      "incomplete": 5894,
      "information": 5895,
      "inhib": 5896,
      "ering": 5897,
      "thing": 5898,
      "thmo": 5899,
      "atrem": 5900,
      "atax": 5901,
      "atology": 5902,
      "enous": 5903,
      "aldo": 5904,
      "alateral": 5905,
      "algia": 5906,
      "alzheim": 5907,
      "oro": 5908,
      "orous": 5909,
      "antr": 5910,
      "anaphy": 5911,
      "edic": 5912,
      "rex": 5913,
      "retrac": 5914,
      "recogn": 5915,
      "revision": 5916,
      "relying": 5917,
      "recanal": 5918,
      "reticul": 5919,
      "aster": 5920,
      "assured": 5921,
      "itab": 5922,
      "itment": 5923,
      "arc": 5924,
      "arrhy": 5925,
      "arry": 5926,
      "isa": 5927,
      "isos": 5928,
      "isms": 5929,
      "ionized": 5930,
      "ics": 5931,
      "ication": 5932,
      "icles": 5933,
      "usative": 5934,
      "ussus": 5935,
      "ofen": 5936,
      "offic": 5937,
      "oflu": 5938,
      "escent": 5939,
      "esarean": 5940,
      "toe": 5941,
      "toid": 5942,
      "topical": 5943,
      "andor": 5944,
      "rosu": 5945,
      "cous": 5946,
      "coher": 5947,
      "cours": 5948,
      "cological": 5949,
      "couple": 5950,
      "cooperate": 5951,
      "uring": 5952,
      "urated": 5953,
      "urity": 5954,
      "stick": 5955,
      "unted": 5956,
      "unexpected": 5957,
      "uncomplicated": 5958,
      "olis": 5959,
      "olip": 5960,
      "olaryng": 5961,
      "hear": 5962,
      "ultaneous": 5963,
      "ulatory": 5964,
      "ulitis": 5965,
      "atives": 5966,
      "acup": 5967,
      "accum": 5968,
      "ters": 5969,
      "terumo": 5970,
      "tertiary": 5971,
      "oses": 5972,
      "osity": 5973,
      "ositis": 5974,
      "osfam": 5975,
      "demar": 5976,
      "debul": 5977,
      "dehydration": 5978,
      "nous": 5979,
      "nostr": 5980,
      "lost": 5981,
      "lock": 5982,
      "ada": 5983,
      "idio": 5984,
      "expressed": 5985,
      "excessive": 5986,
      "verted": 5987,
      "verge": 5988,
      "verified": 5989,
      "vernous": 5990,
      "resect": 5991,
      "coming": 5992,
      "compre": 5993,
      "bep": 5994,
      "behaving": 5995,
      "bella": 5996,
      "usions": 5997,
      "see": 5998,
      "seq": 5999,
      "sema": 6000,
      "abund": 6001,
      "abduction": 6002,
      "conus": 6003,
      "conval": 6004,
      "conazole": 6005,
      "congenital": 6006,
      "convul": 6007,
      "minished": 6008,
      "monro": 6009,
      "mononuclear": 6010,
      "hyg": 6011,
      "hypon": 6012,
      "sca": 6013,
      "scien": 6014,
      "scores": 6015,
      "scoring": 6016,
      "igned": 6017,
      "emsa": 6018,
      "emphy": 6019,
      "trical": 6020,
      "traf": 6021,
      "trend": 6022,
      "chro": 6023,
      "ching": 6024,
      "percent": 6025,
      "percus": 6026,
      "perception": 6027,
      "carbon": 6028,
      "cartil": 6029,
      "imip": 6030,
      "implanted": 6031,
      "imibe": 6032,
      "hole": 6033,
      "hood": 6034,
      "erebral": 6035,
      "apart": 6036,
      "cyl": 6037,
      "meg": 6038,
      "mep": 6039,
      "nea": 6040,
      "nel": 6041,
      "feet": 6042,
      "movable": 6043,
      "brace": 6044,
      "brief": 6045,
      "pept": 6046,
      "affer": 6047,
      "affir": 6048,
      "probe": 6049,
      "promo": 6050,
      "proved": 6051,
      "probab": 6052,
      "ques": 6053,
      "quanti": 6054,
      "dish": 6055,
      "discontinu": 6056,
      "disability": 6057,
      "disrup": 6058,
      "disappearance": 6059,
      "disorientation": 6060,
      "glands": 6061,
      "diop": 6062,
      "dioxide": 6063,
      "diminished": 6064,
      "hispan": 6065,
      "wet": 6066,
      "oneph": 6067,
      "hair": 6068,
      "illicit": 6069,
      "ogastro": 6070,
      "ogue": 6071,
      "ibs": 6072,
      "ibut": 6073,
      "romyography": 6074,
      "note": 6075,
      "ket": 6076,
      "kets": 6077,
      "upivacaine": 6078,
      "vix": 6079,
      "phall": 6080,
      "histories": 6081,
      "ends": 6082,
      "endoscop": 6083,
      "consangu": 6084,
      "ounced": 6085,
      "pavm": 6086,
      "paedic": 6087,
      "cam": 6088,
      "caval": 6089,
      "caec": 6090,
      "causative": 6091,
      "caesarean": 6092,
      "cavernous": 6093,
      "content": 6094,
      "contused": 6095,
      "containing": 6096,
      "contacted": 6097,
      "compass": 6098,
      "serologic": 6099,
      "amb": 6100,
      "tee": 6101,
      "ineering": 6102,
      "treating": 6103,
      "interact": 6104,
      "intermedi": 6105,
      "popul": 6106,
      "pouch": 6107,
      "rankin": 6108,
      "pathies": 6109,
      "pathogenic": 6110,
      "normally": 6111,
      "barr": 6112,
      "barium": 6113,
      "reason": 6114,
      "complaining": 6115,
      "regarding": 6116,
      "hemopty": 6117,
      "etimibe": 6118,
      "poside": 6119,
      "orectal": 6120,
      "aminoph": 6121,
      "gentamic": 6122,
      "190": 6123,
      "hemic": 6124,
      "hemolytic": 6125,
      "partum": 6126,
      "responsiveness": 6127,
      "occurren": 6128,
      "ests": 6129,
      "estive": 6130,
      "1000": 6131,
      "figo": 6132,
      "bloc": 6133,
      "manual": 6134,
      "remote": 6135,
      "iovenous": 6136,
      "got": 6137,
      "otide": 6138,
      "thisia": 6139,
      "dominant": 6140,
      "ashed": 6141,
      "insufficient": 6142,
      "strands": 6143,
      "divided": 6144,
      "cm2": 6145,
      "cmr": 6146,
      "board": 6147,
      "mpv": 6148,
      "soon": 6149,
      "cores": 6150,
      "corner": 6151,
      "corresponding": 6152,
      "corpuscular": 6153,
      "reddish": 6154,
      "young": 6155,
      "posture": 6156,
      "intussus": 6157,
      "idectomy": 6158,
      "opport": 6159,
      "opinion": 6160,
      "159": 6161,
      "ificial": 6162,
      "ifications": 6163,
      "submitted": 6164,
      "transvenous": 6165,
      "transformation": 6166,
      "transvaginal": 6167,
      "transillumination": 6168,
      "ck20": 6169,
      "ronic": 6170,
      "incre": 6171,
      "incised": 6172,
      "copies": 6173,
      "ileitis": 6174,
      "spilled": 6175,
      "gra": 6176,
      "shallow": 6177,
      "iect": 6178,
      "exture": 6179,
      "crao": 6180,
      "kidneys": 6181,
      "experimental": 6182,
      "elected": 6183,
      "12th": 6184,
      "ouracil": 6185,
      "4000": 6186,
      "vaso": 6187,
      "vascul": 6188,
      "relation": 6189,
      "artificial": 6190,
      "ubitus": 6191,
      "intraoral": 6192,
      "arteriovenous": 6193,
      "neuromonitoring": 6194,
      "141": 6195,
      "decubitus": 6196,
      "pathologies": 6197,
      "person": 6198,
      "persistence": 6199,
      "largest": 6200,
      "pulses": 6201,
      "acetyl": 6202,
      "elic": 6203,
      "elisa": 6204,
      "evidenced": 6205,
      "labs": 6206,
      "receive": 6207,
      "ards": 6208,
      "geal": 6209,
      "groove": 6210,
      "plasmac": 6211,
      "00mm3": 6212,
      "address": 6213,
      "operated": 6214,
      "analogue": 6215,
      "cardiover": 6216,
      "dengue": 6217,
      "hypoplasia": 6218,
      "primarily": 6219,
      "evaluate": 6220,
      "contralateral": 6221,
      "contribut": 6222,
      "failing": 6223,
      "anteriorly": 6224,
      "seconds": 6225,
      "species": 6226,
      "17th": 6227,
      "blunt": 6228,
      "cytopenia": 6229,
      "thorough": 6230,
      "sterone": 6231,
      "sterile": 6232,
      "angiographic": 6233,
      "dysarth": 6234,
      "iiib": 6235,
      "electromyography": 6236,
      "generally": 6237,
      "guarding": 6238,
      "stein": 6239,
      "cisco": 6240,
      "cistern": 6241,
      "hematoxy": 6242,
      "hematemesis": 6243,
      "supple": 6244,
      "married": 6245,
      "extreme": 6246,
      "indicative": 6247,
      "calcifications": 6248,
      "anticardi": 6249,
      "aneurysmal": 6250,
      "walled": 6251,
      "alping": 6252,
      "fraction": 6253,
      "fractures": 6254,
      "basilar": 6255,
      "detection": 6256,
      "chemistry": 6257,
      "involves": 6258,
      "fourth": 6259,
      "supernumer": 6260,
      "cd20": 6261,
      "cd10": 6262,
      "ifosfam": 6263,
      "electrodes": 6264,
      "infertility": 6265,
      "hepatorenal": 6266,
      "111": 6267,
      "faced": 6268,
      "iltration": 6269,
      "thoughts": 6270,
      "capillary": 6271,
      "gangl": 6272,
      "fundic": 6273,
      "2006": 6274,
      "2007": 6275,
      "2008": 6276,
      "2009": 6277,
      "polyp": 6278,
      "united": 6279,
      "wards": 6280,
      "canals": 6281,
      "engineering": 6282,
      "minimize": 6283,
      "malignancies": 6284,
      "various": 6285,
      "blockade": 6286,
      "bulging": 6287,
      "choline": 6288,
      "toxins": 6289,
      "intravenously": 6290,
      "technical": 6291,
      "abscesses": 6292,
      "organisms": 6293,
      "lined": 6294,
      "collapsed": 6295,
      "delusions": 6296,
      "mucous": 6297,
      "reports": 6298,
      "reporting": 6299,
      "osteo": 6300,
      "osteolytic": 6301,
      "proximally": 6302,
      "intermittently": 6303,
      "laparoscopy": 6304,
      "swallow": 6305,
      "simultaneous": 6306,
      "trocar": 6307,
      "dimmed": 6308,
      "giving": 6309,
      "giemsa": 6310,
      "platinum": 6311,
      "retrobulbar": 6312,
      "biopsied": 6313,
      "aorto": 6314,
      "gyne": 6315,
      "utrophil": 6316,
      "explain": 6317,
      "explained": 6318,
      "septal": 6319,
      "erythroid": 6320,
      "ribs": 6321,
      "tablet": 6322,
      "tablets": 6323,
      "trying": 6324,
      "motorcycle": 6325,
      "pneumoniae": 6326,
      "voice": 6327,
      "orthodontic": 6328,
      "ophthalmic": 6329,
      "original": 6330,
      "isolated": 6331,
      "acetate": 6332,
      "acetaminoph": 6333,
      "consistency": 6334,
      "bedside": 6335,
      "reflexes": 6336,
      "morphology": 6337,
      "fluorouracil": 6338,
      "papilla": 6339,
      "rubella": 6340,
      "bradyarrhythmia": 6341,
      "cannulation": 6342,
      "myopathic": 6343,
      "atrac": 6344,
      "atrio": 6345,
      "studied": 6346,
      "nodular": 6347,
      "compressing": 6348,
      "signaling": 6349,
      "confirming": 6350,
      "developmental": 6351,
      "digestive": 6352,
      "granul": 6353,
      "uncture": 6354,
      "irrc": 6355,
      "neoadjuvant": 6356,
      "neoplasm": 6357,
      "profound": 6358,
      "classification": 6359,
      "congestive": 6360,
      "hydrate": 6361,
      "supra": 6362,
      "regressed": 6363,
      "discuss": 6364,
      "fasting": 6365,
      "aryngeal": 6366,
      "ophthalmology": 6367,
      "ttf": 6368,
      "recist": 6369,
      "recall": 6370,
      "arthrex": 6371,
      "deteriorating": 6372,
      "clerosis": 6373,
      "clusive": 6374,
      "modific": 6375,
      "endometrium": 6376,
      "extubation": 6377,
      "spectro": 6378,
      "pursue": 6379,
      "communicative": 6380,
      "ezetimibe": 6381,
      "details": 6382,
      "meets": 6383,
      "intervals": 6384,
      "manifested": 6385,
      "thrombocytopenia": 6386,
      "haematocrit": 6387,
      "diaphragmatic": 6388,
      "films": 6389,
      "slowing": 6390,
      "exposed": 6391,
      "cystoscope": 6392,
      "availability": 6393,
      "variants": 6394,
      "bursa": 6395,
      "suture": 6396,
      "oncologist": 6397,
      "anterolateral": 6398,
      "constric": 6399,
      "necessitating": 6400,
      "urethral": 6401,
      "substantially": 6402,
      "microns": 6403,
      "dimensions": 6404,
      "irrigated": 6405,
      "transcript": 6406,
      "orifices": 6407,
      "separated": 6408,
      "hyaline": 6409,
      "hyaloid": 6410,
      "triamcin": 6411,
      "esophagogastro": 6412,
      "amplitudes": 6413,
      "definite": 6414,
      "casts": 6415,
      "gtv": 6416,
      "pasm": 6417,
      "scleritis": 6418,
      "degrees": 6419,
      "converting": 6420,
      "mobilized": 6421,
      "histiocytes": 6422,
      "parenchyma": 6423,
      "distinction": 6424,
      "gastroenterology": 6425,
      "gastroenterologist": 6426,
      "collaterals": 6427,
      "nitrogen": 6428,
      "running": 6429,
      "inopril": 6430,
      "infra": 6431,
      "iazide": 6432,
      "adhered": 6433,
      "aggravation": 6434,
      "remains": 6435,
      "crystal": 6436,
      "emergently": 6437,
      "mycobacter": 6438,
      "measurements": 6439,
      "detectable": 6440,
      "macroscop": 6441,
      "circumferential": 6442,
      "kcnj": 6443,
      "cholecystitis": 6444,
      "gamma": 6445,
      "iodinated": 6446,
      "nonspec": 6447,
      "voiding": 6448,
      "lethargy": 6449,
      "lethargic": 6450,
      "trigger": 6451,
      "chondro": 6452,
      "chondr": 6453,
      "uplex": 6454,
      "corneal": 6455,
      "capsulated": 6456,
      "directions": 6457,
      "evacuation": 6458,
      "evacuated": 6459,
      "francisco": 6460,
      "glycemia": 6461,
      "vimentin": 6462,
      "zirkon": 6463,
      "quantitative": 6464,
      "interpreted": 6465,
      "obliterated": 6466,
      "strategies": 6467,
      "epigastric": 6468,
      "akathisia": 6469,
      "hypotension": 6470,
      "specialized": 6471,
      "globulin": 6472,
      "glomerul": 6473,
      "benefit": 6474,
      "rectosigmoid": 6475,
      "epilepticus": 6476,
      "clavicles": 6477,
      "b8b": 6478,
      "boundaries": 6479,
      "husband": 6480,
      "public": 6481,
      "aggreg": 6482,
      "irritation": 6483,
      "scn5a": 6484,
      "peristaltic": 6485,
      "follicular": 6486,
      "tachypneic": 6487,
      "obtaining": 6488,
      "objectified": 6489,
      "voltage": 6490,
      "haemodynamic": 6491,
      "exercises": 6492,
      "absorption": 6493,
      "protruding": 6494,
      "chemoradiotherapy": 6495,
      "focus": 6496,
      "periapical": 6497,
      "rigid": 6498,
      "tigecycline": 6499,
      "invitae": 6500,
      "alveolar": 6501,
      "orthopaedic": 6502,
      "forearm": 6503,
      "excavated": 6504,
      "resistant": 6505,
      "comorbidities": 6506,
      "challeng": 6507,
      "neuromuscular": 6508,
      "prosthetic": 6509,
      "products": 6510,
      "antineutrophil": 6511,
      "noticeable": 6512,
      "sylvian": 6513,
      "pronounced": 6514,
      "consulting": 6515,
      "paresis": 6516,
      "caudal": 6517,
      "otorhin": 6518,
      "cerebrospinal": 6519,
      "caliber": 6520,
      "vasospasm": 6521,
      "psoriasis": 6522,
      "equipment": 6523,
      "european": 6524,
      "ischaemic": 6525,
      "recruitment": 6526,
      "amalgam": 6527,
      "civil": 6528,
      "distention": 6529,
      "etoposide": 6530,
      "f508del": 6531,
      "gradient": 6532,
      "haptoglobin": 6533,
      "lisinopril": 6534,
      "lupus": 6535,
      "lfts": 6536,
      "pca3": 6537,
      "skele": 6538,
      "twelve": 6539,
      "whose": 6540,
      "thmogenic": 6541,
      "atremia": 6542,
      "ataxia": 6543,
      "alzheimers": 6544,
      "anaphylactic": 6545,
      "recognized": 6546,
      "recanalization": 6547,
      "asterisk": 6548,
      "itabine": 6549,
      "arrhythmogenic": 6550,
      "rosuvastatin": 6551,
      "olipin": 6552,
      "acupuncture": 6553,
      "accumulation": 6554,
      "demarcated": 6555,
      "debulking": 6556,
      "idiopathic": 6557,
      "comprehensive": 6558,
      "abundant": 6559,
      "convalescent": 6560,
      "convulsion": 6561,
      "hyponatremia": 6562,
      "emphysema": 6563,
      "percentage": 6564,
      "percussion": 6565,
      "cartilage": 6566,
      "imipenem": 6567,
      "afferent": 6568,
      "affirmed": 6569,
      "probably": 6570,
      "disruption": 6571,
      "diopter": 6572,
      "hispanic": 6573,
      "caecum": 6574,
      "hemoptysis": 6575,
      "gentamicin": 6576,
      "intussusception": 6577,
      "opportun": 6578,
      "acetylcholine": 6579,
      "dysarthria": 6580,
      "cisterns": 6581,
      "hematoxylin": 6582,
      "anticardiolipin": 6583,
      "supernumerary": 6584,
      "ifosfamide": 6585,
      "acetaminophen": 6586,
      "triamcinolone": 6587,
      "esophagogastroduoden": 6588,
      "1st": 6589,
      "1600": 6590,
      "274": 6591,
      "2a1": 6592,
      "2nd": 6593,
      "2m0": 6594,
      "318": 6595,
      "320": 6596,
      "325": 6597,
      "370": 6598,
      "3dct": 6599,
      "4m": 6600,
      "4v": 6601,
      "495": 6602,
      "515": 6603,
      "538": 6604,
      "6th": 6605,
      "715": 6606,
      "876": 6607,
      "9l": 6608,
      "900": 6609,
      "ai": 6610,
      "aco": 6611,
      "aut": 6612,
      "acom": 6613,
      "awn": 6614,
      "avascular": 6615,
      "ba": 6616,
      "ban": 6617,
      "bable": 6618,
      "bind": 6619,
      "bile": 6620,
      "bcr": 6621,
      "bites": 6622,
      "biso": 6623,
      "c4": 6624,
      "cia": 6625,
      "cca": 6626,
      "ccal": 6627,
      "cbc": 6628,
      "cases": 6629,
      "cats": 6630,
      "cages": 6631,
      "cfn": 6632,
      "dg": 6633,
      "dt": 6634,
      "dat": 6635,
      "dri": 6636,
      "ditis": 6637,
      "doxy": 6638,
      "dried": 6639,
      "eal": 6640,
      "eve": 6641,
      "ell": 6642,
      "east": 6643,
      "easy": 6644,
      "ejection": 6645,
      "e4v": 6646,
      "f2": 6647,
      "fh": 6648,
      "fis": 6649,
      "fent": 6650,
      "fear": 6651,
      "fted": 6652,
      "fitted": 6653,
      "fash": 6654,
      "fsh": 6655,
      "fna": 6656,
      "ffin": 6657,
      "filtration": 6658,
      "fdg": 6659,
      "gg": 6660,
      "gar": 6661,
      "gol": 6662,
      "gly": 6663,
      "gab": 6664,
      "give": 6665,
      "gens": 6666,
      "gren": 6667,
      "gitation": 6668,
      "gang": 6669,
      "gester": 6670,
      "gcc": 6671,
      "ggt": 6672,
      "hold": 6673,
      "hment": 6674,
      "hill": 6675,
      "hdl": 6676,
      "iu": 6677,
      "iol": 6678,
      "ilo": 6679,
      "iolysis": 6680,
      "jl": 6681,
      "jcm2": 6682,
      "ka": 6683,
      "kar": 6684,
      "k2a1": 6685,
      "lm": 6686,
      "ler": 6687,
      "lent": 6688,
      "lady": 6689,
      "lqt": 6690,
      "laucoma": 6691,
      "lux": 6692,
      "llect": 6693,
      "lgren": 6694,
      "m2": 6695,
      "mb": 6696,
      "mol": 6697,
      "mul": 6698,
      "mex": 6699,
      "mse": 6700,
      "mill": 6701,
      "mised": 6702,
      "mcg": 6703,
      "madol": 6704,
      "nr": 6705,
      "nos": 6706,
      "nct": 6707,
      "nive": 6708,
      "native": 6709,
      "nml": 6710,
      "nrs": 6711,
      "nk2a1": 6712,
      "oh": 6713,
      "ow": 6714,
      "oto": 6715,
      "oqu": 6716,
      "ocol": 6717,
      "oesophageal": 6718,
      "ocele": 6719,
      "oalveolar": 6720,
      "pha": 6721,
      "pte": 6722,
      "pinal": 6723,
      "ptomy": 6724,
      "polar": 6725,
      "pime": 6726,
      "prick": 6727,
      "q1": 6728,
      "rin": 6729,
      "rat": 6730,
      "rical": 6731,
      "ruled": 6732,
      "ratus": 6733,
      "s2": 6734,
      "sco": 6735,
      "sun": 6736,
      "scl": 6737,
      "sum": 6738,
      "sha": 6739,
      "shad": 6740,
      "sie": 6741,
      "sification": 6742,
      "svac": 6743,
      "salping": 6744,
      "t7": 6745,
      "tation": 6746,
      "tight": 6747,
      "tall": 6748,
      "tlc": 6749,
      "tdt": 6750,
      "uic": 6751,
      "uminal": 6752,
      "vp": 6753,
      "vt": 6754,
      "vine": 6755,
      "vox": 6756,
      "v11": 6757,
      "villo": 6758,
      "why": 6759,
      "wsin": 6760,
      "xan": 6761,
      "xic": 6762,
      "xine": 6763,
      "xanth": 6764,
      "ying": 6765,
      "ylos": 6766,
      "yker": 6767,
      "zia": 6768,
      "zine": 6769,
      "ines": 6770,
      "inno": 6771,
      "inad": 6772,
      "incon": 6773,
      "inted": 6774,
      "inity": 6775,
      "incons": 6776,
      "inating": 6777,
      "indirect": 6778,
      "inotro": 6779,
      "erian": 6780,
      "thir": 6781,
      "tham": 6782,
      "those": 6783,
      "onto": 6784,
      "atre": 6785,
      "atys": 6786,
      "enox": 6787,
      "encoun": 6788,
      "enoidal": 6789,
      "encapsulated": 6790,
      "alin": 6791,
      "ality": 6792,
      "allog": 6793,
      "aligned": 6794,
      "orax": 6795,
      "oramic": 6796,
      "aned": 6797,
      "anion": 6798,
      "anus": 6799,
      "anil": 6800,
      "angl": 6801,
      "anchor": 6802,
      "anhu": 6803,
      "rey": 6804,
      "represent": 6805,
      "readmitted": 6806,
      "replaced": 6807,
      "react": 6808,
      "reflu": 6809,
      "reci": 6810,
      "rearrangement": 6811,
      "asal": 6812,
      "asia": 6813,
      "asing": 6814,
      "asted": 6815,
      "ascular": 6816,
      "astolic": 6817,
      "asked": 6818,
      "itz": 6819,
      "itate": 6820,
      "itations": 6821,
      "aris": 6822,
      "arma": 6823,
      "arbid": 6824,
      "array": 6825,
      "arbon": 6826,
      "articul": 6827,
      "ionic": 6828,
      "entially": 6829,
      "entamo": 6830,
      "entuximab": 6831,
      "icul": 6832,
      "icteric": 6833,
      "theli": 6834,
      "theatre": 6835,
      "often": 6836,
      "tome": 6837,
      "rol": 6838,
      "road": 6839,
      "rosa": 6840,
      "iaphysis": 6841,
      "cole": 6842,
      "colo": 6843,
      "cock": 6844,
      "cosis": 6845,
      "cooperation": 6846,
      "ithorax": 6847,
      "withdr": 6848,
      "urium": 6849,
      "urnal": 6850,
      "urgitation": 6851,
      "leid": 6852,
      "letion": 6853,
      "wasted": 6854,
      "wasser": 6855,
      "sta": 6856,
      "stret": 6857,
      "stump": 6858,
      "step": 6859,
      "stiff": 6860,
      "union": 6861,
      "unil": 6862,
      "unch": 6863,
      "unrelated": 6864,
      "unconscious": 6865,
      "unsuccessful": 6866,
      "undifferentiated": 6867,
      "unretrieved": 6868,
      "unaware": 6869,
      "unresponsiveness": 6870,
      "olaceous": 6871,
      "hel": 6872,
      "held": 6873,
      "hefh": 6874,
      "ulum": 6875,
      "ulate": 6876,
      "atified": 6877,
      "aca": 6878,
      "acg": 6879,
      "acade": 6880,
      "acry": 6881,
      "acanth": 6882,
      "terol": 6883,
      "osse": 6884,
      "osclerosis": 6885,
      "dehis": 6886,
      "deline": 6887,
      "demise": 6888,
      "decalcified": 6889,
      "lycer": 6890,
      "noct": 6891,
      "noma": 6892,
      "nophagia": 6893,
      "loose": 6894,
      "lobul": 6895,
      "adic": 6896,
      "ading": 6897,
      "adiaphysis": 6898,
      "clon": 6899,
      "clones": 6900,
      "clonic": 6901,
      "ida": 6902,
      "idone": 6903,
      "idine": 6904,
      "idious": 6905,
      "utro": 6906,
      "ctu": 6907,
      "extr": 6908,
      "exons": 6909,
      "excell": 6910,
      "expir": 6911,
      "existence": 6912,
      "versal": 6913,
      "vertently": 6914,
      "agin": 6915,
      "aged": 6916,
      "aging": 6917,
      "agitation": 6918,
      "agland": 6919,
      "respir": 6920,
      "iris": 6921,
      "irbes": 6922,
      "compar": 6923,
      "compartment": 6924,
      "beat": 6925,
      "become": 6926,
      "sely": 6927,
      "secut": 6928,
      "sella": 6929,
      "abrup": 6930,
      "ilities": 6931,
      "plish": 6932,
      "plication": 6933,
      "platys": 6934,
      "derang": 6935,
      "consequ": 6936,
      "confined": 6937,
      "contour": 6938,
      "consecut": 6939,
      "minne": 6940,
      "minary": 6941,
      "scalp": 6942,
      "isting": 6943,
      "igenic": 6944,
      "ema": 6945,
      "eme": 6946,
      "emak": 6947,
      "tru": 6948,
      "trap": 6949,
      "tried": 6950,
      "chiar": 6951,
      "perce": 6952,
      "periv": 6953,
      "aint": 6954,
      "ima": 6955,
      "hope": 6956,
      "house": 6957,
      "uming": 6958,
      "umbil": 6959,
      "appre": 6960,
      "applan": 6961,
      "appet": 6962,
      "apoli": 6963,
      "apolis": 6964,
      "apgar": 6965,
      "meal": 6966,
      "megest": 6967,
      "meticul": 6968,
      "neath": 6969,
      "neutro": 6970,
      "suv": 6971,
      "fecal": 6972,
      "fetal": 6973,
      "feld": 6974,
      "fepime": 6975,
      "mot": 6976,
      "moon": 6977,
      "mount": 6978,
      "brug": 6979,
      "brentuximab": 6980,
      "propr": 6981,
      "procal": 6982,
      "proxim": 6983,
      "produced": 6984,
      "prolact": 6985,
      "prognostic": 6986,
      "prostatic": 6987,
      "proposed": 6988,
      "probable": 6989,
      "progester": 6990,
      "cetax": 6991,
      "cefepime": 6992,
      "mentation": 6993,
      "mentioned": 6994,
      "atelect": 6995,
      "discre": 6996,
      "dissol": 6997,
      "disorganized": 6998,
      "testic": 6999,
      "lld": 7000,
      "glu": 7001,
      "glio": 7002,
      "glenoid": 7003,
      "malformation": 7004,
      "sheet": 7005,
      "diastolic": 7006,
      "undertaken": 7007,
      "underneath": 7008,
      "herit": 7009,
      "herical": 7010,
      "herpes": 7011,
      "ante": 7012,
      "ants": 7013,
      "inclusions": 7014,
      "liber": 7015,
      "lique": 7016,
      "lipped": 7017,
      "lifes": 7018,
      "lifted": 7019,
      "liminary": 7020,
      "weird": 7021,
      "resting": 7022,
      "restart": 7023,
      "restored": 7024,
      "oneum": 7025,
      "treph": 7026,
      "illus": 7027,
      "aseptic": 7028,
      "moroc": 7029,
      "mortem": 7030,
      "ogrel": 7031,
      "ographic": 7032,
      "prepa": 7033,
      "precor": 7034,
      "pregab": 7035,
      "preliminary": 7036,
      "pressive": 7037,
      "presyn": 7038,
      "yses": 7039,
      "ysmal": 7040,
      "ibizumab": 7041,
      "iene": 7042,
      "ience": 7043,
      "notably": 7044,
      "whitis": 7045,
      "ationship": 7046,
      "violaceous": 7047,
      "phle": 7048,
      "phere": 7049,
      "phone": 7050,
      "phleg": 7051,
      "pharyng": 7052,
      "phrey": 7053,
      "pharma": 7054,
      "renous": 7055,
      "placing": 7056,
      "endplate": 7057,
      "maximal": 7058,
      "mazine": 7059,
      "izer": 7060,
      "inside": 7061,
      "insert": 7062,
      "inski": 7063,
      "insidious": 7064,
      "infected": 7065,
      "consump": 7066,
      "parad": 7067,
      "parox": 7068,
      "parenter": 7069,
      "oduplex": 7070,
      "statin": 7071,
      "states": 7072,
      "admissions": 7073,
      "dam": 7074,
      "damycin": 7075,
      "paper": 7076,
      "pao2": 7077,
      "cae": 7078,
      "ca19": 7079,
      "causes": 7080,
      "contamin": 7081,
      "genome": 7082,
      "genotype": 7083,
      "traject": 7084,
      "tramadol": 7085,
      "compound": 7086,
      "series": 7087,
      "serious": 7088,
      "serratus": 7089,
      "aml": 7090,
      "amide": 7091,
      "ambu": 7092,
      "lessened": 7093,
      "interbody": 7094,
      "pointed": 7095,
      "ranibizumab": 7096,
      "qualitative": 7097,
      "pathway": 7098,
      "diseased": 7099,
      "rhabdo": 7100,
      "flor": 7101,
      "flank": 7102,
      "centre": 7103,
      "inject": 7104,
      "hemorrho": 7105,
      "medically": 7106,
      "regained": 7107,
      "regard": 7108,
      "regurgitation": 7109,
      "csnk2a1": 7110,
      "hemody": 7111,
      "itect": 7112,
      "bystand": 7113,
      "retin": 7114,
      "retired": 7115,
      "suffer": 7116,
      "dependence": 7117,
      "gently": 7118,
      "196": 7119,
      "1997": 7120,
      "oxane": 7121,
      "injured": 7122,
      "hemi": 7123,
      "hemithorax": 7124,
      "consented": 7125,
      "intracor": 7126,
      "responses": 7127,
      "limitation": 7128,
      "ocor": 7129,
      "occlud": 7130,
      "occluded": 7131,
      "thmias": 7132,
      "2000": 7133,
      "103": 7134,
      "droop": 7135,
      "drowsin": 7136,
      "medicated": 7137,
      "245": 7138,
      "actone": 7139,
      "fibrin": 7140,
      "limiting": 7141,
      "thereby": 7142,
      "ott": 7143,
      "otexture": 7144,
      "sahlgren": 7145,
      "ipi": 7146,
      "chromic": 7147,
      "chromos": 7148,
      "spondy": 7149,
      "dietary": 7150,
      "docetax": 7151,
      "hydrochlor": 7152,
      "ortex": 7153,
      "lithium": 7154,
      "obsc": 7155,
      "obste": 7156,
      "obese": 7157,
      "obupivacaine": 7158,
      "oblique": 7159,
      "indexraz": 7160,
      "strual": 7161,
      "strip": 7162,
      "stryker": 7163,
      "stratified": 7164,
      "ceral": 7165,
      "cervix": 7166,
      "remdes": 7167,
      "mpn": 7168,
      "corpor": 7169,
      "correct": 7170,
      "epstein": 7171,
      "radial": 7172,
      "anyl": 7173,
      "anything": 7174,
      "transc": 7175,
      "indist": 7176,
      "ives": 7177,
      "rifam": 7178,
      "postpartum": 7179,
      "clindamycin": 7180,
      "visiting": 7181,
      "visceral": 7182,
      "intent": 7183,
      "opted": 7184,
      "157": 7185,
      "1500": 7186,
      "cellulitis": 7187,
      "subclinical": 7188,
      "subtraction": 7189,
      "submandibular": 7190,
      "subcortical": 7191,
      "subchondr": 7192,
      "transport": 7193,
      "transrectal": 7194,
      "transsph": 7195,
      "transmural": 7196,
      "incter": 7197,
      "incident": 7198,
      "dram": 7199,
      "akary": 7200,
      "colostomy": 7201,
      "colorectal": 7202,
      "504": 7203,
      "ileo": 7204,
      "span": 7205,
      "spac": 7206,
      "sport": 7207,
      "spinous": 7208,
      "spherical": 7209,
      "bleed": 7210,
      "careful": 7211,
      "cleic": 7212,
      "shaft": 7213,
      "piriformis": 7214,
      "extent": 7215,
      "croft": 7216,
      "biomicroscopy": 7217,
      "eleven": 7218,
      "metadiaphysis": 7219,
      "completion": 7220,
      "design": 7221,
      "omide": 7222,
      "hyperintensity": 7223,
      "chronological": 7224,
      "relational": 7225,
      "relatives": 7226,
      "relationship": 7227,
      "artgut": 7228,
      "ubb": 7229,
      "symptomatology": 7230,
      "arteritis": 7231,
      "ulcerated": 7232,
      "neuroplasty": 7233,
      "neurosurgeons": 7234,
      "neuroendocrine": 7235,
      "1415": 7236,
      "309": 7237,
      "veno": 7238,
      "odynophagia": 7239,
      "decreasing": 7240,
      "famil": 7241,
      "sequel": 7242,
      "speed": 7243,
      "speak": 7244,
      "700": 7245,
      "friable": 7246,
      "thening": 7247,
      "physin": 7248,
      "bactrim": 7249,
      "nonweight": 7250,
      "nonbleeding": 7251,
      "nonsteroidal": 7252,
      "nonproductive": 7253,
      "pulsati": 7254,
      "133": 7255,
      "134": 7256,
      "136": 7257,
      "1315": 7258,
      "1358": 7259,
      "elder": 7260,
      "elastic": 7261,
      "xime": 7262,
      "protective": 7263,
      "histologic": 7264,
      "histolytic": 7265,
      "studys": 7266,
      "fluconazole": 7267,
      "fluctu": 7268,
      "0014": 7269,
      "created": 7270,
      "ptpn": 7271,
      "analyses": 7272,
      "cardiology": 7273,
      "cardiogenic": 7274,
      "localised": 7275,
      "proteinuria": 7276,
      "furthermore": 7277,
      "hypoalbumin": 7278,
      "hypoechoic": 7279,
      "raphically": 7280,
      "myc": 7281,
      "myopathy": 7282,
      "myogen": 7283,
      "myasthenia": 7284,
      "myalgia": 7285,
      "menstrual": 7286,
      "rales": 7287,
      "microcatheter": 7288,
      "microbial": 7289,
      "microscope": 7290,
      "microelectrodes": 7291,
      "172": 7292,
      "blastic": 7293,
      "icked": 7294,
      "mlh": 7295,
      "mlmin": 7296,
      "thoraco": 7297,
      "sternum": 7298,
      "avf": 7299,
      "gases": 7300,
      "fullness": 7301,
      "dyslipidemia": 7302,
      "newborn": 7303,
      "distally": 7304,
      "cavitation": 7305,
      "electron": 7306,
      "electrical": 7307,
      "mitosis": 7308,
      "mitoses": 7309,
      "pleuro": 7310,
      "lasting": 7311,
      "cisatrac": 7312,
      "crown": 7313,
      "hematology": 7314,
      "hematologic": 7315,
      "10060": 7316,
      "transferring": 7317,
      "transferrin": 7318,
      "autom": 7319,
      "author": 7320,
      "sectioned": 7321,
      "supported": 7322,
      "bronchoalveolar": 7323,
      "indication": 7324,
      "5843": 7325,
      "plateau": 7326,
      "psct": 7327,
      "hypertrophic": 7328,
      "thyroxine": 7329,
      "gastrotomy": 7330,
      "gastroesophageal": 7331,
      "fourteen": 7332,
      "synapto": 7333,
      "visualization": 7334,
      "cd23": 7335,
      "edematous": 7336,
      "adenocarcin": 7337,
      "meso": 7338,
      "locations": 7339,
      "fluids": 7340,
      "fibers": 7341,
      "ometry": 7342,
      "inferolateral": 7343,
      "radiol": 7344,
      "echino": 7345,
      "echotexture": 7346,
      "facil": 7347,
      "picin": 7348,
      "knees": 7349,
      "perirectal": 7350,
      "periprocedural": 7351,
      "viewsite": 7352,
      "laterally": 7353,
      "entering": 7354,
      "acids": 7355,
      "impact": 7356,
      "flexor": 7357,
      "buccal": 7358,
      "discitis": 7359,
      "2005": 7360,
      "200mm3": 7361,
      "peripherally": 7362,
      "panoramic": 7363,
      "polyclonal": 7364,
      "sixteen": 7365,
      "233": 7366,
      "239": 7367,
      "dilation": 7368,
      "graded": 7369,
      "centrally": 7370,
      "positioned": 7371,
      "366": 7372,
      "clopid": 7373,
      "vitro": 7374,
      "parathyroid": 7375,
      "prostagland": 7376,
      "finishing": 7377,
      "purplish": 7378,
      "immunostaining": 7379,
      "thrombi": 7380,
      "thrombolysis": 7381,
      "toxigenic": 7382,
      "childs": 7383,
      "childhood": 7384,
      "technologies": 7385,
      "gauge": 7386,
      "organs": 7387,
      "organomegaly": 7388,
      "volumetric": 7389,
      "periodic": 7390,
      "lines": 7391,
      "lining": 7392,
      "maturity": 7393,
      "matching": 7394,
      "rather": 7395,
      "collar": 7396,
      "excludes": 7397,
      "aparin": 7398,
      "386": 7399,
      "palpitations": 7400,
      "software": 7401,
      "schwan": 7402,
      "ankylos": 7403,
      "accessed": 7404,
      "oxygenation": 7405,
      "factors": 7406,
      "closing": 7407,
      "superiorly": 7408,
      "biology": 7409,
      "lasma": 7410,
      "miami": 7411,
      "osteoid": 7412,
      "termination": 7413,
      "whereas": 7414,
      "structural": 7415,
      "brown": 7416,
      "frequency": 7417,
      "liters": 7418,
      "antiglaucoma": 7419,
      "angioma": 7420,
      "prostatectomy": 7421,
      "investigate": 7422,
      "ethambu": 7423,
      "heteroduplex": 7424,
      "femurtibia": 7425,
      "pneumonitis": 7426,
      "263": 7427,
      "gift": 7428,
      "retroviral": 7429,
      "retroperitoneal": 7430,
      "segments": 7431,
      "humphrey": 7432,
      "vitality": 7433,
      "acuities": 7434,
      "exploratory": 7435,
      "septic": 7436,
      "autoimmune": 7437,
      "autogenous": 7438,
      "autosomal": 7439,
      "ribonu": 7440,
      "smartgut": 7441,
      "sulfate": 7442,
      "stimulated": 7443,
      "concerns": 7444,
      "ventilator": 7445,
      "cesarean": 7446,
      "encephalitis": 7447,
      "extensively": 7448,
      "microscopically": 7449,
      "nucleus": 7450,
      "nucleoli": 7451,
      "leukocytes": 7452,
      "falling": 7453,
      "hbsag": 7454,
      "split": 7455,
      "turned": 7456,
      "turning": 7457,
      "waves": 7458,
      "institutional": 7459,
      "mobitz": 7460,
      "vitrectomy": 7461,
      "handed": 7462,
      "intraoperatively": 7463,
      "appropriative": 7464,
      "infarctions": 7465,
      "protocols": 7466,
      "cuff": 7467,
      "ptococcus": 7468,
      "compress": 7469,
      "dropping": 7470,
      "confirmation": 7471,
      "ultrasonogram": 7472,
      "variation": 7473,
      "photosensitivity": 7474,
      "alcoholic": 7475,
      "digit": 7476,
      "front": 7477,
      "granulation": 7478,
      "granulo": 7479,
      "mandible": 7480,
      "pinprick": 7481,
      "ascending": 7482,
      "closely": 7483,
      "neoplasia": 7484,
      "amplified": 7485,
      "originated": 7486,
      "originating": 7487,
      "bicarbon": 7488,
      "ldlr": 7489,
      "mutations": 7490,
      "itching": 7491,
      "classic": 7492,
      "classical": 7493,
      "suprac": 7494,
      "transfusions": 7495,
      "radiologically": 7496,
      "branches": 7497,
      "evening": 7498,
      "hallux": 7499,
      "pupil": 7500,
      "igaλ": 7501,
      "characterized": 7502,
      "cephalic": 7503,
      "dipstick": 7504,
      "sigmoidoscopy": 7505,
      "ophthalmologic": 7506,
      "daughters": 7507,
      "release": 7508,
      "released": 7509,
      "processes": 7510,
      "diverticular": 7511,
      "deposit": 7512,
      "deposition": 7513,
      "establish": 7514,
      "haemorrhages": 7515,
      "communication": 7516,
      "pseudocyst": 7517,
      "anastomos": 7518,
      "cadcam": 7519,
      "lucency": 7520,
      "sphincter": 7521,
      "orbit": 7522,
      "reconstructed": 7523,
      "retrie": 7524,
      "adria": 7525,
      "chorionic": 7526,
      "channel": 7527,
      "dissected": 7528,
      "prevented": 7529,
      "preventing": 7530,
      "tracheoesophageal": 7531,
      "activated": 7532,
      "strongly": 7533,
      "pneumomediastinum": 7534,
      "haematoma": 7535,
      "tuberosity": 7536,
      "bursitis": 7537,
      "fingers": 7538,
      "sleeve": 7539,
      "slowly": 7540,
      "architect": 7541,
      "counter": 7542,
      "counsel": 7543,
      "expose": 7544,
      "empiric": 7545,
      "empirically": 7546,
      "cystoscopy": 7547,
      "cystotome": 7548,
      "gravity": 7549,
      "grossly": 7550,
      "anticoagul": 7551,
      "electrocardiography": 7552,
      "embryo": 7553,
      "embryonal": 7554,
      "burden": 7555,
      "cushing": 7556,
      "frog": 7557,
      "waltham": 7558,
      "oncologic": 7559,
      "levobupivacaine": 7560,
      "melena": 7561,
      "necessary": 7562,
      "endothelial": 7563,
      "odonto": 7564,
      "introduction": 7565,
      "tolerance": 7566,
      "borders": 7567,
      "eba": 7568,
      "meningeal": 7569,
      "othiazide": 7570,
      "pitting": 7571,
      "society": 7572,
      "intrinsic": 7573,
      "anxious": 7574,
      "compromised": 7575,
      "begun": 7576,
      "mechanic": 7577,
      "appendicular": 7578,
      "amounts": 7579,
      "murmur": 7580,
      "sclera": 7581,
      "walker": 7582,
      "anomal": 7583,
      "extraocular": 7584,
      "conversion": 7585,
      "carbohydrate": 7586,
      "prompted": 7587,
      "prophylactic": 7588,
      "opacification": 7589,
      "velocities": 7590,
      "stimuli": 7591,
      "stimulations": 7592,
      "stimulating": 7593,
      "tilt": 7594,
      "instrumented": 7595,
      "orescence": 7596,
      "iazid": 7597,
      "adherent": 7598,
      "connective": 7599,
      "producing": 7600,
      "clotting": 7601,
      "kcnq1": 7602,
      "pigmented": 7603,
      "pigmentation": 7604,
      "craniocaudal": 7605,
      "fissures": 7606,
      "favor": 7607,
      "favored": 7608,
      "lanes": 7609,
      "laminectomy": 7610,
      "nigrican": 7611,
      "nigerian": 7612,
      "nonsense": 7613,
      "sprain": 7614,
      "integr": 7615,
      "intellect": 7616,
      "streptomy": 7617,
      "components": 7618,
      "triglycer": 7619,
      "normocytic": 7620,
      "occlusive": 7621,
      "cornea": 7622,
      "distributed": 7623,
      "pleuritic": 7624,
      "secreting": 7625,
      "incidentally": 7626,
      "thresholds": 7627,
      "a1c": 7628,
      "bipolar": 7629,
      "glycemic": 7630,
      "riage": 7631,
      "zirconium": 7632,
      "enamel": 7633,
      "reflective": 7634,
      "escalation": 7635,
      "looking": 7636,
      "illectomy": 7637,
      "neovascularization": 7638,
      "celecox": 7639,
      "fifth": 7640,
      "fifteen": 7641,
      "interpretation": 7642,
      "hemodynamics": 7643,
      "obliteration": 7644,
      "allergens": 7645,
      "strategy": 7646,
      "epigastrium": 7647,
      "grafting": 7648,
      "referrals": 7649,
      "hypotensive": 7650,
      "globular": 7651,
      "glomerular": 7652,
      "hepatotoxicity": 7653,
      "benefits": 7654,
      "galactosemia": 7655,
      "trimethoprimsulfamethoxazole": 7656,
      "dorsal": 7657,
      "fascicles": 7658,
      "gastritis": 7659,
      "gastrectomy": 7660,
      "ostium": 7661,
      "pacemak": 7662,
      "tnbc": 7663,
      "inhalation": 7664,
      "isointense": 7665,
      "isoniazid": 7666,
      "loops": 7667,
      "expanded": 7668,
      "braces": 7669,
      "brachial": 7670,
      "questioning": 7671,
      "symmetrical": 7672,
      "suspension": 7673,
      "hemispher": 7674,
      "optimal": 7675,
      "incisors": 7676,
      "analgesics": 7677,
      "blurring": 7678,
      "picuous": 7679,
      "adjustment": 7680,
      "attenuation": 7681,
      "attenuated": 7682,
      "atherosclerosis": 7683,
      "awaiting": 7684,
      "fvc": 7685,
      "gaze": 7686,
      "jugular": 7687,
      "lavage": 7688,
      "ncbi": 7689,
      "omentectomy": 7690,
      "tanner": 7691,
      "tonsillectomy": 7692,
      "influenz": 7693,
      "arthrocentesis": 7694,
      "acquired": 7695,
      "adhesiolysis": 7696,
      "expectoration": 7697,
      "resembl": 7698,
      "abbott": 7699,
      "immobilizer": 7700,
      "suicidal": 7701,
      "bruise": 7702,
      "properly": 7703,
      "glutamyl": 7704,
      "preceded": 7705,
      "parasite": 7706,
      "composite": 7707,
      "barrier": 7708,
      "retainer": 7709,
      "doctor": 7710,
      "epidermal": 7711,
      "intensified": 7712,
      "columnar": 7713,
      "extensor": 7714,
      "lymphadenectomy": 7715,
      "myelinating": 7716,
      "plexus": 7717,
      "audible": 7718,
      "polymorphs": 7719,
      "coronavirus": 7720,
      "occupying": 7721,
      "periodontal": 7722,
      "kcne1": 7723,
      "nm0002182c": 7724,
      "knowledge": 7725,
      "doxorubicindexraz": 7726,
      "penetration": 7727,
      "siblings": 7728,
      "behavior": 7729,
      "budd": 7730,
      "graphs": 7731,
      "mastectomy": 7732,
      "nursing": 7733,
      "santa": 7734,
      "twenty": 7735,
      "yellow": 7736,
      "inhibitor": 7737,
      "retractor": 7738,
      "reticulocyte": 7739,
      "arrythmias": 7740,
      "office": 7741,
      "ofluorescence": 7742,
      "cousin": 7743,
      "coherence": 7744,
      "courses": 7745,
      "resectable": 7746,
      "hygiene": 7747,
      "sciences": 7748,
      "traffic": 7749,
      "megakary": 7750,
      "peptide": 7751,
      "promote": 7752,
      "discontinuation": 7753,
      "onephrosis": 7754,
      "endoscopically": 7755,
      "consanguinity": 7756,
      "population": 7757,
      "occurrences": 7758,
      "copiesml": 7759,
      "vasculitis": 7760,
      "elicited": 7761,
      "cardioverter": 7762,
      "contributory": 7763,
      "extremely": 7764,
      "ganglion": 7765,
      "osteoplasty": 7766,
      "trocars": 7767,
      "gyneco": 7768,
      "atrioventricular": 7769,
      "recistv11": 7770,
      "modifications": 7771,
      "constriction": 7772,
      "transcriptase": 7773,
      "macroscopically": 7774,
      "nonspecific": 7775,
      "triggered": 7776,
      "chondroblastic": 7777,
      "challenging": 7778,
      "otorhinolaryng": 7779,
      "skeletal": 7780,
      "convulsions": 7781,
      "opportunity": 7782,
      "esophagogastroduodenoscopy": 7783,
      "4m6": 7784,
      "bancroft": 7785,
      "binding": 7786,
      "bisoprolol": 7787,
      "doxycycline": 7788,
      "e4v4m6": 7789,
      "fentanyl": 7790,
      "feared": 7791,
      "ffiness": 7792,
      "golf": 7793,
      "gangrenous": 7794,
      "holding": 7795,
      "jlns": 7796,
      "luxation": 7797,
      "niveau": 7798,
      "ototoxicity": 7799,
      "shadow": 7800,
      "inadvertently": 7801,
      "inconclusive": 7802,
      "inconspicuous": 7803,
      "enoxaparin": 7804,
      "encountered": 7805,
      "allograft": 7806,
      "reactants": 7807,
      "reflux": 7808,
      "reciprocal": 7809,
      "arbidol": 7810,
      "entamoeba": 7811,
      "colectomy": 7812,
      "withdrawn": 7813,
      "leiden": 7814,
      "wassermann": 7815,
      "stretch": 7816,
      "stiffness": 7817,
      "unilateral": 7818,
      "acanthosis": 7819,
      "osseous": 7820,
      "dehiscence": 7821,
      "nocturnal": 7822,
      "extrinsic": 7823,
      "excellent": 7824,
      "expired": 7825,
      "irbesartan": 7826,
      "abrupt": 7827,
      "platysma": 7828,
      "consecutive": 7829,
      "minneapolis": 7830,
      "chiari": 7831,
      "perivascular": 7832,
      "hopelessness": 7833,
      "applanation": 7834,
      "appetite": 7835,
      "apolipoprotein": 7836,
      "megestrol": 7837,
      "meticulous": 7838,
      "brugada": 7839,
      "proximity": 7840,
      "prolactin": 7841,
      "progesterone": 7842,
      "dissolved": 7843,
      "trephine": 7844,
      "prepare": 7845,
      "precordial": 7846,
      "pregabalin": 7847,
      "presyncopal": 7848,
      "whitish": 7849,
      "phlegmon": 7850,
      "pharyngitis": 7851,
      "pharmacological": 7852,
      "consumption": 7853,
      "paroxysmal": 7854,
      "parenteral": 7855,
      "pao2fio2": 7856,
      "contamination": 7857,
      "trajectory": 7858,
      "rhabdomy": 7859,
      "hemodynamically": 7860,
      "occluding": 7861,
      "drowsiness": 7862,
      "spondyl": 7863,
      "docetaxel": 7864,
      "hydrochlorothiazide": 7865,
      "corporation": 7866,
      "rifampicin": 7867,
      "subchondral": 7868,
      "transsphenoidal": 7869,
      "pulsatile": 7870,
      "13588": 7871,
      "histolytica": 7872,
      "ptpn11": 7873,
      "hypoalbuminemia": 7874,
      "myogenin": 7875,
      "cisatracurium": 7876,
      "synaptophysin": 7877,
      "clopidogrel": 7878,
      "prostaglandin": 7879,
      "schwannoma": 7880,
      "ethambutol": 7881,
      "ribonucleic": 7882,
      "bicarbonate": 7883,
      "anticoagulant": 7884,
      "nigricans": 7885,
      "intellectual": 7886,
      "streptomycin": 7887,
      "celecoxib": 7888,
      "pacemaker": 7889,
      "influenza": 7890,
      "doxorubicindexrazoxane": 7891,
      "bancrofti": 7892,
      "015": 7893,
      "013": 7894,
      "075": 7895,
      "045": 7896,
      "069": 7897,
      "046": 7898,
      "049": 7899,
      "0m0": 7900,
      "118": 7901,
      "165": 7902,
      "160": 7903,
      "1200": 7904,
      "1v2": 7905,
      "2a": 7906,
      "2b": 7907,
      "2w": 7908,
      "220": 7909,
      "225": 7910,
      "217": 7911,
      "2100": 7912,
      "2gy": 7913,
      "3t": 7914,
      "365": 7915,
      "324": 7916,
      "315": 7917,
      "314": 7918,
      "368": 7919,
      "321": 7920,
      "329": 7921,
      "399": 7922,
      "3300": 7923,
      "4b": 7924,
      "4l": 7925,
      "460": 7926,
      "445": 7927,
      "448": 7928,
      "466": 7929,
      "4sd": 7930,
      "550": 7931,
      "512": 7932,
      "530": 7933,
      "570": 7934,
      "535": 7935,
      "517": 7936,
      "618": 7937,
      "624": 7938,
      "630": 7939,
      "616": 7940,
      "725": 7941,
      "842": 7942,
      "867": 7943,
      "9th": 7944,
      "910": 7945,
      "950": 7946,
      "911": 7947,
      "a2": 7948,
      "aun": 7949,
      "ave": 7950,
      "aim": 7951,
      "aplasia": 7952,
      "b2": 7953,
      "bs": 7954,
      "bos": 7955,
      "bad": 7956,
      "bital": 7957,
      "bulin": 7958,
      "bite": 7959,
      "bands": 7960,
      "bay": 7961,
      "bene": 7962,
      "bolus": 7963,
      "bubb": 7964,
      "c0": 7965,
      "cf": 7966,
      "cic": 7967,
      "cno": 7968,
      "cim": 7969,
      "cial": 7970,
      "c18": 7971,
      "cleft": 7972,
      "ccs": 7973,
      "cible": 7974,
      "core": 7975,
      "cri": 7976,
      "c45": 7977,
      "cii": 7978,
      "c34": 7979,
      "cns": 7980,
      "cgy": 7981,
      "cpap": 7982,
      "c33": 7983,
      "ciga": 7984,
      "cida": 7985,
      "df": 7986,
      "dp": 7987,
      "dens": 7988,
      "dog": 7989,
      "drom": 7990,
      "d12": 7991,
      "dong": 7992,
      "darm": 7993,
      "dors": 7994,
      "dashed": 7995,
      "dnr": 7996,
      "dactone": 7997,
      "ea": 7998,
      "ej": 7999,
      "ever": 8000,
      "eted": 8001,
      "ethan": 8002,
      "eli": 8003,
      "epa": 8004,
      "ecog": 8005,
      "e1v2": 8006,
      "f1": 8007,
      "fed": 8008,
      "fus": 8009,
      "fut": 8010,
      "fab": 8011,
      "faf": 8012,
      "fax": 8013,
      "filar": 8014,
      "fiable": 8015,
      "faint": 8016,
      "gus": 8017,
      "gur": 8018,
      "gation": 8019,
      "gac": 8020,
      "gad": 8021,
      "grit": 8022,
      "gap": 8023,
      "gated": 8024,
      "gment": 8025,
      "gib": 8026,
      "gability": 8027,
      "gday": 8028,
      "gel": 8029,
      "gish": 8030,
      "gata": 8031,
      "gbs": 8032,
      "hc": 8033,
      "hen": 8034,
      "hit": 8035,
      "hof": 8036,
      "hco": 8037,
      "hid": 8038,
      "hil": 8039,
      "hain": 8040,
      "hpe": 8041,
      "hra": 8042,
      "hlock": 8043,
      "ier": 8044,
      "ipo": 8045,
      "ived": 8046,
      "iance": 8047,
      "iology": 8048,
      "ihpv": 8049,
      "ihar": 8050,
      "ihc": 8051,
      "jar": 8052,
      "jag": 8053,
      "jog": 8054,
      "jak": 8055,
      "jiro": 8056,
      "jux": 8057,
      "jiang": 8058,
      "ku": 8059,
      "kit": 8060,
      "kap": 8061,
      "kill": 8062,
      "kμl": 8063,
      "l1": 8064,
      "l2": 8065,
      "lb": 8066,
      "lh": 8067,
      "ls": 8068,
      "lation": 8069,
      "llo": 8070,
      "lut": 8071,
      "lute": 8072,
      "lang": 8073,
      "lak": 8074,
      "lpd": 8075,
      "lge": 8076,
      "listed": 8077,
      "lgic": 8078,
      "laryng": 8079,
      "laryngeal": 8080,
      "m4": 8081,
      "mh": 8082,
      "mth": 8083,
      "mof": 8084,
      "ming": 8085,
      "mil": 8086,
      "mum": 8087,
      "map": 8088,
      "mib": 8089,
      "mcgm": 8090,
      "mup": 8091,
      "matos": 8092,
      "murs": 8093,
      "mca": 8094,
      "matic": 8095,
      "mta": 8096,
      "mtor": 8097,
      "mci": 8098,
      "miuml": 8099,
      "msec": 8100,
      "mastic": 8101,
      "milled": 8102,
      "mdct": 8103,
      "mhz": 8104,
      "np": 8105,
      "nt": 8106,
      "nad": 8107,
      "nex": 8108,
      "nmo": 8109,
      "nant": 8110,
      "none": 8111,
      "nide": 8112,
      "nace": 8113,
      "nstem": 8114,
      "nav": 8115,
      "nbu": 8116,
      "ngdl": 8117,
      "nesis": 8118,
      "null": 8119,
      "nearly": 8120,
      "nests": 8121,
      "n2m0": 8122,
      "n0m0": 8123,
      "nf1": 8124,
      "ok": 8125,
      "oin": 8126,
      "odia": 8127,
      "ocom": 8128,
      "oca": 8129,
      "ooph": 8130,
      "oace": 8131,
      "oose": 8132,
      "ovir": 8133,
      "oaffect": 8134,
      "oplastic": 8135,
      "othelial": 8136,
      "oocytes": 8137,
      "p3": 8138,
      "pu": 8139,
      "ply": 8140,
      "pad": 8141,
      "pct": 8142,
      "ppro": 8143,
      "pater": 8144,
      "pore": 8145,
      "pancy": 8146,
      "pso": 8147,
      "p40": 8148,
      "ppd": 8149,
      "pml": 8150,
      "pcd": 8151,
      "ploy": 8152,
      "pmoll": 8153,
      "pyl": 8154,
      "p99": 8155,
      "pcv": 8156,
      "p31": 8157,
      "pivacaine": 8158,
      "plot": 8159,
      "pgtv": 8160,
      "punch": 8161,
      "peme": 8162,
      "picked": 8163,
      "pku": 8164,
      "qs": 8165,
      "qing": 8166,
      "q2w": 8167,
      "rb": 8168,
      "rv": 8169,
      "ras": 8170,
      "rul": 8171,
      "rain": 8172,
      "rug": 8173,
      "rub": 8174,
      "rating": 8175,
      "rbc": 8176,
      "rminute": 8177,
      "rabb": 8178,
      "rmt": 8179,
      "rofen": 8180,
      "sf": 8181,
      "sad": 8182,
      "sct": 8183,
      "sper": 8184,
      "sular": 8185,
      "spar": 8186,
      "sore": 8187,
      "sach": 8188,
      "soci": 8189,
      "slip": 8190,
      "spot": 8191,
      "search": 8192,
      "s538": 8193,
      "slipped": 8194,
      "tin": 8195,
      "tar": 8196,
      "tof": 8197,
      "tun": 8198,
      "tse": 8199,
      "tap": 8200,
      "tam": 8201,
      "ttic": 8202,
      "tort": 8203,
      "tmp": 8204,
      "tsh": 8205,
      "titis": 8206,
      "tonic": 8207,
      "tds": 8208,
      "tiaz": 8209,
      "tired": 8210,
      "tcd4": 8211,
      "tcd8": 8212,
      "tamine": 8213,
      "uz": 8214,
      "uan": 8215,
      "uis": 8216,
      "ule": 8217,
      "uab": 8218,
      "uper": 8219,
      "ubio": 8220,
      "uclear": 8221,
      "ucis": 8222,
      "uhan": 8223,
      "vb": 8224,
      "vd": 8225,
      "vor": 8226,
      "vage": 8227,
      "vial": 8228,
      "vity": 8229,
      "vations": 8230,
      "vvi": 8231,
      "vfi": 8232,
      "v40": 8233,
      "vature": 8234,
      "vats": 8235,
      "ville": 8236,
      "vgcc": 8237,
      "vortex": 8238,
      "wk": 8239,
      "win": 8240,
      "wen": 8241,
      "wed": 8242,
      "wrap": 8243,
      "wax": 8244,
      "wert": 8245,
      "wils": 8246,
      "wigg": 8247,
      "wides": 8248,
      "wuch": 8249,
      "wires": 8250,
      "wkins": 8251,
      "wuhan": 8252,
      "x5": 8253,
      "xy": 8254,
      "xheim": 8255,
      "yto": 8256,
      "yro": 8257,
      "yle": 8258,
      "yol": 8259,
      "ydia": 8260,
      "ymoma": 8261,
      "yeast": 8262,
      "ze": 8263,
      "zar": 8264,
      "zos": 8265,
      "zinc": 8266,
      "zom": 8267,
      "zpat": 8268,
      "zath": 8269,
      "zah": 8270,
      "µgdl": 8271,
      "µiuml": 8272,
      "µgday": 8273,
      "ück": 8274,
      "μmol": 8275,
      "inor": 8276,
      "inct": 8277,
      "insur": 8278,
      "inate": 8279,
      "indu": 8280,
      "intran": 8281,
      "inconsistent": 8282,
      "indetermin": 8283,
      "inhomogeneous": 8284,
      "inversion": 8285,
      "inherit": 8286,
      "ereria": 8287,
      "erup": 8288,
      "ersp": 8289,
      "erque": 8290,
      "ony": 8291,
      "onan": 8292,
      "onate": 8293,
      "onary": 8294,
      "onitis": 8295,
      "onism": 8296,
      "onazole": 8297,
      "onatal": 8298,
      "onfeld": 8299,
      "ato": 8300,
      "aten": 8301,
      "atch": 8302,
      "atum": 8303,
      "atine": 8304,
      "atop": 8305,
      "atically": 8306,
      "atemia": 8307,
      "atomic": 8308,
      "enol": 8309,
      "eness": 8310,
      "ensure": 8311,
      "enjo": 8312,
      "encing": 8313,
      "ences": 8314,
      "encas": 8315,
      "encompass": 8316,
      "als": 8317,
      "allo": 8318,
      "albin": 8319,
      "alasia": 8320,
      "aldactone": 8321,
      "orch": 8322,
      "orted": 8323,
      "orative": 8324,
      "orator": 8325,
      "anic": 8326,
      "anse": 8327,
      "anch": 8328,
      "anam": 8329,
      "anium": 8330,
      "anating": 8331,
      "anoid": 8332,
      "anemic": 8333,
      "edition": 8334,
      "edding": 8335,
      "editary": 8336,
      "edronic": 8337,
      "ref": 8338,
      "rein": 8339,
      "revel": 8340,
      "recre": 8341,
      "recurred": 8342,
      "recombin": 8343,
      "recollection": 8344,
      "reentry": 8345,
      "rebound": 8346,
      "recessive": 8347,
      "reotide": 8348,
      "republic": 8349,
      "reunion": 8350,
      "reversal": 8351,
      "asm": 8352,
      "asic": 8353,
      "ascre": 8354,
      "ascap": 8355,
      "asias": 8356,
      "itia": 8357,
      "itself": 8358,
      "ara": 8359,
      "ari": 8360,
      "arate": 8361,
      "arenal": 8362,
      "ardium": 8363,
      "isl": 8364,
      "ister": 8365,
      "ismal": 8366,
      "isod": 8367,
      "isition": 8368,
      "isocor": 8369,
      "ionate": 8370,
      "ionine": 8371,
      "enta": 8372,
      "entery": 8373,
      "entran": 8374,
      "entary": 8375,
      "enticular": 8376,
      "entanil": 8377,
      "ict": 8378,
      "icone": 8379,
      "icillin": 8380,
      "theater": 8381,
      "theless": 8382,
      "thecal": 8383,
      "usg": 8384,
      "ush": 8385,
      "usted": 8386,
      "usually": 8387,
      "uspid": 8388,
      "ofovir": 8389,
      "eshy": 8390,
      "estr": 8391,
      "esencephal": 8392,
      "esional": 8393,
      "escence": 8394,
      "esartan": 8395,
      "touch": 8396,
      "toux": 8397,
      "toprolol": 8398,
      "topically": 8399,
      "tosterone": 8400,
      "tocida": 8401,
      "romal": 8402,
      "rock": 8403,
      "rophy": 8404,
      "roux": 8405,
      "rocyanosis": 8406,
      "rogation": 8407,
      "ropivacaine": 8408,
      "cob": 8409,
      "coar": 8410,
      "cost": 8411,
      "cool": 8412,
      "coper": 8413,
      "costo": 8414,
      "cott": 8415,
      "coagul": 8416,
      "ithyro": 8417,
      "uri": 8418,
      "uranti": 8419,
      "urished": 8420,
      "ings": 8421,
      "ingual": 8422,
      "lel": 8423,
      "lems": 8424,
      "lepto": 8425,
      "leolus": 8426,
      "wasting": 8427,
      "stad": 8428,
      "strap": 8429,
      "stress": 8430,
      "strict": 8431,
      "uni": 8432,
      "unclear": 8433,
      "unclosed": 8434,
      "uncertain": 8435,
      "undetectable": 8436,
      "unresectable": 8437,
      "olab": 8438,
      "olate": 8439,
      "hea": 8440,
      "heat": 8441,
      "helon": 8442,
      "hezia": 8443,
      "ulas": 8444,
      "ulus": 8445,
      "ulos": 8446,
      "ulli": 8447,
      "ativity": 8448,
      "acist": 8449,
      "acce": 8450,
      "actic": 8451,
      "accur": 8452,
      "acheal": 8453,
      "aciated": 8454,
      "acknowled": 8455,
      "aculatory": 8456,
      "acrocyanosis": 8457,
      "osup": 8458,
      "osep": 8459,
      "osarcoma": 8460,
      "osaka": 8461,
      "ossification": 8462,
      "osuper": 8463,
      "deaf": 8464,
      "detac": 8465,
      "deformation": 8466,
      "dehydr": 8467,
      "decompressed": 8468,
      "devoid": 8469,
      "depressed": 8470,
      "deletion": 8471,
      "demyelinating": 8472,
      "vef": 8473,
      "vex": 8474,
      "veget": 8475,
      "vecii": 8476,
      "lyme": 8477,
      "nomen": 8478,
      "nourished": 8479,
      "formo": 8480,
      "force": 8481,
      "forty": 8482,
      "forts": 8483,
      "lobin": 8484,
      "lopid": 8485,
      "louis": 8486,
      "advent": 8487,
      "adip": 8488,
      "adian": 8489,
      "advice": 8490,
      "adduction": 8491,
      "adnex": 8492,
      "diafiltration": 8493,
      "clar": 8494,
      "clind": 8495,
      "clature": 8496,
      "ids": 8497,
      "iding": 8498,
      "idase": 8499,
      "iday": 8500,
      "idium": 8501,
      "idomas": 8502,
      "idomide": 8503,
      "uting": 8504,
      "utaneous": 8505,
      "utious": 8506,
      "utting": 8507,
      "cta": 8508,
      "ctpet": 8509,
      "ctcae": 8510,
      "exy": 8511,
      "expres": 8512,
      "exud": 8513,
      "exact": 8514,
      "exclude": 8515,
      "exchange": 8516,
      "existing": 8517,
      "verick": 8518,
      "agen": 8519,
      "agitated": 8520,
      "agenous": 8521,
      "ressed": 8522,
      "resume": 8523,
      "iry": 8524,
      "iran": 8525,
      "irradiation": 8526,
      "irradiating": 8527,
      "irvine": 8528,
      "beam": 8529,
      "belonged": 8530,
      "becoming": 8531,
      "seh": 8532,
      "seated": 8533,
      "seating": 8534,
      "seeding": 8535,
      "semis": 8536,
      "sellar": 8537,
      "seemed": 8538,
      "ritin": 8539,
      "abated": 8540,
      "abled": 8541,
      "abduct": 8542,
      "abulum": 8543,
      "abvd": 8544,
      "abutting": 8545,
      "ilst": 8546,
      "ilium": 8547,
      "iluted": 8548,
      "iliary": 8549,
      "pled": 8550,
      "plum": 8551,
      "plates": 8552,
      "pledge": 8553,
      "deriv": 8554,
      "dermis": 8555,
      "conformed": 8556,
      "confocal": 8557,
      "constant": 8558,
      "consequence": 8559,
      "conjug": 8560,
      "convex": 8561,
      "mino": 8562,
      "mination": 8563,
      "minate": 8564,
      "minance": 8565,
      "monday": 8566,
      "hyop": 8567,
      "hysis": 8568,
      "scant": 8569,
      "scint": 8570,
      "istaxis": 8571,
      "istally": 8572,
      "igf": 8573,
      "igation": 8574,
      "igible": 8575,
      "emal": 8576,
      "ember": 8577,
      "emtric": 8578,
      "employ": 8579,
      "emanating": 8580,
      "emaciated": 8581,
      "trained": 8582,
      "cha": 8583,
      "cher": 8584,
      "chal": 8585,
      "chun": 8586,
      "chung": 8587,
      "ch37": 8588,
      "chiro": 8589,
      "chpf": 8590,
      "chlam": 8591,
      "chond": 8592,
      "chias": 8593,
      "chdf": 8594,
      "choose": 8595,
      "peril": 8596,
      "perim": 8597,
      "perfect": 8598,
      "peroneal": 8599,
      "pertin": 8600,
      "caries": 8601,
      "carba": 8602,
      "impossible": 8603,
      "hot": 8604,
      "host": 8605,
      "hoid": 8606,
      "umarate": 8607,
      "apate": 8608,
      "apular": 8609,
      "apsing": 8610,
      "apillary": 8611,
      "apubic": 8612,
      "apenem": 8613,
      "apposed": 8614,
      "apnea": 8615,
      "cylin": 8616,
      "cyclos": 8617,
      "cyano": 8618,
      "cys538": 8619,
      "cyclind": 8620,
      "suria": 8621,
      "suring": 8622,
      "metric": 8623,
      "metry": 8624,
      "megaly": 8625,
      "meconium": 8626,
      "methyl": 8627,
      "metoprolol": 8628,
      "net": 8629,
      "ney": 8630,
      "neonatal": 8631,
      "ricket": 8632,
      "essentially": 8633,
      "mood": 8634,
      "mople": 8635,
      "model": 8636,
      "bri": 8637,
      "brs": 8638,
      "briform": 8639,
      "brisk": 8640,
      "braun": 8641,
      "brück": 8642,
      "petal": 8643,
      "pectomy": 8644,
      "afx": 8645,
      "provision": 8646,
      "proportion": 8647,
      "probes": 8648,
      "projection": 8649,
      "protamine": 8650,
      "cect": 8651,
      "cecal": 8652,
      "cels": 8653,
      "quiet": 8654,
      "querque": 8655,
      "quiry": 8656,
      "ventral": 8657,
      "discer": 8658,
      "distol": 8659,
      "disclosed": 8660,
      "displacing": 8661,
      "dislocations": 8662,
      "dissoci": 8663,
      "testicular": 8664,
      "testosterone": 8665,
      "hospitalizations": 8666,
      "glaz": 8667,
      "gleno": 8668,
      "glue": 8669,
      "malnutrition": 8670,
      "malleolus": 8671,
      "herbal": 8672,
      "heroin": 8673,
      "herxheim": 8674,
      "hereditary": 8675,
      "antec": 8676,
      "antagon": 8677,
      "antacids": 8678,
      "lie": 8679,
      "lipos": 8680,
      "lianhu": 8681,
      "weaned": 8682,
      "rests": 8683,
      "restrain": 8684,
      "ficed": 8685,
      "hawkins": 8686,
      "trepon": 8687,
      "gmdl": 8688,
      "illage": 8689,
      "illitis": 8690,
      "outdo": 8691,
      "outflow": 8692,
      "types": 8693,
      "typically": 8694,
      "thermo": 8695,
      "thermia": 8696,
      "morp": 8697,
      "ogens": 8698,
      "ographically": 8699,
      "oglobin": 8700,
      "187": 8701,
      "18g": 8702,
      "1800": 8703,
      "prefer": 8704,
      "preca": 8705,
      "prevention": 8706,
      "premedication": 8707,
      "premature": 8708,
      "presumed": 8709,
      "ibup": 8710,
      "valid": 8711,
      "valgus": 8712,
      "romatosis": 8713,
      "assist": 8714,
      "whilst": 8715,
      "sym": 8716,
      "syring": 8717,
      "keen": 8718,
      "uptitrated": 8719,
      "viated": 8720,
      "phasic": 8721,
      "renin": 8722,
      "renew": 8723,
      "histamin": 8724,
      "endum": 8725,
      "endarter": 8726,
      "endymoma": 8727,
      "enduranti": 8728,
      "saa": 8729,
      "safe": 8730,
      "iata": 8731,
      "iatrogen": 8732,
      "ponade": 8733,
      "pontine": 8734,
      "pract": 8735,
      "princ": 8736,
      "practic": 8737,
      "feron": 8738,
      "fertility": 8739,
      "ferritin": 8740,
      "mam": 8741,
      "mavirus": 8742,
      "maverick": 8743,
      "inspiratory": 8744,
      "infective": 8745,
      "ventricles": 8746,
      "consort": 8747,
      "paraf": 8748,
      "parane": 8749,
      "paracetam": 8750,
      "parkins": 8751,
      "paranoid": 8752,
      "parapate": 8753,
      "shox": 8754,
      "should": 8755,
      "odal": 8756,
      "oding": 8757,
      "odentin": 8758,
      "pax5": 8759,
      "careg": 8760,
      "cauter": 8761,
      "cautious": 8762,
      "context": 8763,
      "contents": 8764,
      "genio": 8765,
      "656": 8766,
      "6500": 8767,
      "uretic": 8768,
      "serin": 8769,
      "serological": 8770,
      "ampic": 8771,
      "ampho": 8772,
      "amput": 8773,
      "itioner": 8774,
      "tepic": 8775,
      "telang": 8776,
      "tezom": 8777,
      "inel": 8778,
      "interactive": 8779,
      "interacting": 8780,
      "interosseous": 8781,
      "interrogation": 8782,
      "poc": 8783,
      "pop": 8784,
      "poik": 8785,
      "poiet": 8786,
      "ranin": 8787,
      "ranges": 8788,
      "ranged": 8789,
      "norovirus": 8790,
      "pathogens": 8791,
      "tracer": 8792,
      "tracts": 8793,
      "tick": 8794,
      "ticlopid": 8795,
      "rhonch": 8796,
      "rhinor": 8797,
      "flat": 8798,
      "flage": 8799,
      "flap": 8800,
      "flare": 8801,
      "flair": 8802,
      "fleshy": 8803,
      "centime": 8804,
      "continues": 8805,
      "normalize": 8806,
      "requests": 8807,
      "baric": 8808,
      "barnes": 8809,
      "barbital": 8810,
      "reassured": 8811,
      "fungi": 8812,
      "regulatory": 8813,
      "regulate": 8814,
      "hemothorax": 8815,
      "hemodiafiltration": 8816,
      "uroxime": 8817,
      "command": 8818,
      "suffering": 8819,
      "sufficient": 8820,
      "etil": 8821,
      "uggish": 8822,
      "pose": 8823,
      "poses": 8824,
      "orectomy": 8825,
      "191": 8826,
      "194": 8827,
      "195": 8828,
      "1992": 8829,
      "1998": 8830,
      "oxus": 8831,
      "hemiar": 8832,
      "intractable": 8833,
      "intracerebral": 8834,
      "respond": 8835,
      "tenofovir": 8836,
      "occurring": 8837,
      "ochezia": 8838,
      "ocutaneous": 8839,
      "plans": 8840,
      "planar": 8841,
      "kind": 8842,
      "204": 8843,
      "2060": 8844,
      "2025": 8845,
      "2080": 8846,
      "estones": 8847,
      "102": 8848,
      "104": 8849,
      "105": 8850,
      "10th": 8851,
      "10000": 8852,
      "vicular": 8853,
      "vicry": 8854,
      "6000mm3": 8855,
      "602gy": 8856,
      "mgg": 8857,
      "mg24": 8858,
      "mg12": 8859,
      "mannit": 8860,
      "mantoux": 8861,
      "actin": 8862,
      "examining": 8863,
      "psychotic": 8864,
      "tachyzo": 8865,
      "ioception": 8866,
      "goit": 8867,
      "goes": 8868,
      "goble": 8869,
      "mentally": 8870,
      "oxaloace": 8871,
      "sensorium": 8872,
      "ips": 8873,
      "iphoid": 8874,
      "feasibility": 8875,
      "bloodwork": 8876,
      "foster": 8877,
      "foamy": 8878,
      "dow": 8879,
      "doing": 8880,
      "duplication": 8881,
      "mml": 8882,
      "mmse": 8883,
      "green": 8884,
      "ortion": 8885,
      "nephrology": 8886,
      "obsess": 8887,
      "obiliary": 8888,
      "allic": 8889,
      "risen": 8890,
      "testis": 8891,
      "strand": 8892,
      "striae": 8893,
      "stracheal": 8894,
      "stridium": 8895,
      "germ": 8896,
      "germinal": 8897,
      "cers": 8898,
      "cerulo": 8899,
      "wood": 8900,
      "pains": 8901,
      "phosphonate": 8902,
      "achalasia": 8903,
      "cms": 8904,
      "cmyear": 8905,
      "cmap": 8906,
      "cmaps": 8907,
      "bow": 8908,
      "botomy": 8909,
      "boost": 8910,
      "remif": 8911,
      "remnant": 8912,
      "remember": 8913,
      "individualization": 8914,
      "mp1": 8915,
      "someth": 8916,
      "soesophageal": 8917,
      "south": 8918,
      "anginal": 8919,
      "angulated": 8920,
      "angdong": 8921,
      "correl": 8922,
      "corrug": 8923,
      "epistaxis": 8924,
      "cured": 8925,
      "curve": 8926,
      "curative": 8927,
      "curvature": 8928,
      "radiata": 8929,
      "neglect": 8930,
      "negativity": 8931,
      "anying": 8932,
      "anymore": 8933,
      "transtracheal": 8934,
      "transoesophageal": 8935,
      "indwelling": 8936,
      "indurated": 8937,
      "ivf": 8938,
      "ivus": 8939,
      "ivir": 8940,
      "dlbcl": 8941,
      "ribe": 8942,
      "rifax": 8943,
      "rificed": 8944,
      "postcontrast": 8945,
      "overl": 8946,
      "overweight": 8947,
      "overcome": 8948,
      "intention": 8949,
      "ideation": 8950,
      "oppressive": 8951,
      "opapular": 8952,
      "154": 8953,
      "155": 8954,
      "158": 8955,
      "15t": 8956,
      "subtype": 8957,
      "subtotal": 8958,
      "subglo": 8959,
      "submucosa": 8960,
      "subject": 8961,
      "subcla": 8962,
      "subcostal": 8963,
      "subtle": 8964,
      "subconjunctival": 8965,
      "subsegmental": 8966,
      "subhyaloid": 8967,
      "subendothelial": 8968,
      "subluxation": 8969,
      "dura": 8970,
      "durable": 8971,
      "durations": 8972,
      "transgastric": 8973,
      "transesophageal": 8974,
      "transfused": 8975,
      "transbronchial": 8976,
      "drill": 8977,
      "drained": 8978,
      "drip": 8979,
      "aki": 8980,
      "copper": 8981,
      "copious": 8982,
      "copss": 8983,
      "eyelid": 8984,
      "pedicle": 8985,
      "spat": 8986,
      "spir": 8987,
      "spite": 8988,
      "spiro": 8989,
      "spasm": 8990,
      "spillage": 8991,
      "untary": 8992,
      "distance": 8993,
      "district": 8994,
      "distorted": 8995,
      "distortion": 8996,
      "clean": 8997,
      "cleidomas": 8998,
      "grand": 8999,
      "grip": 9000,
      "grch37": 9001,
      "shar": 9002,
      "shenz": 9003,
      "shedding": 9004,
      "lesional": 9005,
      "iectomy": 9006,
      "cannot": 9007,
      "canadian": 9008,
      "piral": 9009,
      "crack": 9010,
      "biopharm": 9011,
      "timi": 9012,
      "122": 9013,
      "126": 9014,
      "129": 9015,
      "metallic": 9016,
      "desis": 9017,
      "destru": 9018,
      "omnis": 9019,
      "porta": 9020,
      "hyperchrom": 9021,
      "hyperpara": 9022,
      "hyperlact": 9023,
      "hyperplastic": 9024,
      "hypercellular": 9025,
      "hyperaldo": 9026,
      "hyperbaric": 9027,
      "improving": 9028,
      "relax": 9029,
      "relapsed": 9030,
      "diffusion": 9031,
      "ubm": 9032,
      "ubital": 9033,
      "worst": 9034,
      "intraperitoneal": 9035,
      "intraretinal": 9036,
      "intrauterine": 9037,
      "highest": 9038,
      "highlight": 9039,
      "neurology": 9040,
      "neurosyphilis": 9041,
      "neuroblastoma": 9042,
      "tions": 9043,
      "143": 9044,
      "14th": 9045,
      "1447": 9046,
      "301": 9047,
      "303": 9048,
      "decad": 9049,
      "porine": 9050,
      "volumin": 9051,
      "persist": 9052,
      "252": 9053,
      "pds": 9054,
      "opharyngeal": 9055,
[...]
